<pad>	0
<s>	0
</s>	0
<unk>	0
▁t	-0
he	-1
▁a	-2
▁the	-3
in	-4
re	-5
▁s	-6
▁o	-7
▁w	-8
nd	-9
is	-10
▁c	-11
at	-12
er	-13
▁b	-14
le	-15
or	-16
▁f	-17
ou	-18
on	-19
▁and	-20
it	-21
en	-22
▁th	-23
▁m	-24
es	-25
▁p	-26
an	-27
▁to	-28
▁d	-29
▁h	-30
▁of	-31
ing	-32
▁in	-33
ar	-34
al	-35
ed	-36
▁n	-37
ic	-38
ow	-39
as	-40
om	-41
▁"	-42
ll	-43
▁is	-44
▁u	-45
▁I	-46
▁T	-47
ut	-48
et	-49
ot	-50
ion	-51
ve	-52
▁l	-53
▁S	-54
▁on	-55
▁y	-56
ct	-57
▁g	-58
."	-59
▁e	-60
se	-61
▁be	-62
▁he	-63
ay	-64
ent	-65
am	-66
im	-67
od	-68
▁that	-69
st	-70
▁wh	-71
nt	-72
▁you	-73
▁re	-74
▁se	-75
▁we	-76
ac	-77
▁for	-78
▁A	-79
▁ha	-80
ith	-81
id	-82
▁C	-83
ill	-84
▁this	-85
il	-86
ro	-87
▁are	-88
ur	-89
▁st	-90
ig	-91
▁as	-92
▁sh	-93
▁The	-94
▁us	-95
▁W	-96
▁with	-97
her	-98
▁le	-99
▁will	-100
ad	-101
ir	-102
▁it	-103
ag	-104
pe	-105
▁L	-106
ld	-107
▁an	-108
▁N	-109
▁not	-110
ver	-111
▁P	-112
ly	-113
if	-114
ce	-115
▁com	-116
▁have	-117
ht	-118
▁B	-119
us	-120
lic	-121
▁G	-122
ial	-123
ke	-124
▁fr	-125
ain	-126
ation	-127
▁M	-128
▁r	-129
▁all	-130
▁can	-131
ile	-132
ab	-133
▁F	-134
ch	-135
▁de	-136
ame	-137
ul	-138
▁v	-139
▁him	-140
ate	-141
ore	-142
lick	-143
ich	-144
▁unt	-145
ok	-146
um	-147
ol	-148
pt	-149
▁H	-150
ers	-151
▁ch	-152
▁by	-153
all	-154
▁or	-155
▁unto	-156
ord	-157
▁from	-158
th	-159
ight	-160
▁which	-161
ra	-162
ss	-163
ess	-164
And	-165
qu	-166
▁sa	-167
age	-168
hen	-169
▁We	-170
▁k	-171
▁al	-172
ment	-173
est	-174
and	-175
orial	-176
▁them	-177
utorial	-178
▁ex	-179
▁D	-180
▁me	-181
ple	-182
▁Th	-183
▁at	-184
▁ne	-185
▁see	-186
▁O	-187
▁E	-188
▁J	-189
ri	-190
ter	-191
▁con	-192
ere	-193
▁pro	-194
ant	-195
iv	-196
ist	-197
▁they	-198
ie	-199
lo	-200
un	-201
so	-202
our	-203
▁do	-204
ath	-205
em	-206
ace	-207
▁sp	-208
ud	-209
▁but	-210
▁who	-211
▁R	-212
▁go	-213
▁man	-214
▁ye	-215
▁Y	-216
lect	-217
▁your	-218
ect	-219
eth	-220
ure	-221
▁dis	-222
▁In	-223
▁Now	-224
▁was	-225
ome	-226
▁lo	-227
art	-228
▁ab	-229
ine	-230
▁br	-231
ive	-232
▁one	-233
ype	-234
▁fo	-235
▁tutorial	-236
ang	-237
ind	-238
own	-239
▁there	-240
pl	-241
▁pr	-242
xt	-243
▁his	-244
av	-245
ack	-246
able	-247
ak	-248
▁click	-249
led	-250
el	-251
▁shall	-252
▁su	-253
▁has	-254
▁Let	-255
▁int	-256
ould	-257
▁This	-258
ire	-259
▁also	-260
▁up	-261
▁out	-262
▁pre	-263
▁our	-264
ings	-265
ard	-266
▁file	-267
ail	-268
▁God	-269
▁1	-270
▁wor	-271
▁when	-272
▁here	-273
ari	-274
▁pl	-275
rou	-276
ass	-277
▁kn	-278
out	-279
ase	-280
ction	-281
▁im	-282
are	-283
pp	-284
ide	-285
og	-286
▁select	-287
ake	-288
▁type	-289
ous	-290
reat	-291
▁You	-292
ose	-293
ast	-294
ort	-295
▁te	-296
fore	-297
▁tw	-298
ck	-299
▁K	-300
ult	-301
▁say	-302
cc	-303
ice	-304
ther	-305
▁bo	-306
▁And	-307
▁comm	-308
▁so	-309
▁ad	-310
▁said	-311
▁Ch	-312
ject	-313
ption	-314
ite	-315
▁So	-316
▁two	-317
ust	-318
▁into	-319
op	-320
ows	-321
▁It	-322
ue	-323
▁am	-324
▁op	-325
▁now	-326
ong	-327
▁j	-328
▁To	-329
▁let	-330
int	-331
▁should	-332
▁'	-333
oken	-334
play	-335
ans	-336
▁if	-337
..	-338
one	-339
▁Click	-340
ep	-341
▁thou	-342
ip	-343
▁ar	-344
▁mo	-345
▁tr	-346
here	-347
▁cl	-348
ana	-349
sh	-350
ies	-351
other	-352
▁name	-353
▁these	-354
▁V	-355
▁right	-356
▁(	-357
ne	-358
ink	-359
▁li	-360
very	-361
ond	-362
▁Wh	-363
umb	-364
▁ag	-365
▁lear	-366
au	-367
▁U	-368
irst	-369
ount	-370
▁any	-371
▁display	-372
ness	-373
▁get	-374
▁their	-375
esus	-376
▁then	-377
▁fe	-378
▁other	-379
▁2	-380
ity	-381
▁no	-382
▁using	-383
▁my	-384
▁po	-385
▁bec	-386
▁know	-387
orm	-388
ory	-389
ise	-390
▁option	-391
ign	-392
ens	-393
▁cont	-394
▁St	-395
▁Jesus	-396
oth	-397
▁about	-398
ild	-399
gh	-400
ish	-401
sel	-402
iz	-403
▁cal	-404
▁things	-405
▁qu	-406
▁were	-407
▁how	-408
▁per	-409
ach	-410
put	-411
▁col	-412
ble	-413
▁Lord	-414
▁chang	-415
ha	-416
▁may	-417
▁vari	-418
ru	-419
▁add	-420
▁had	-421
▁come	-422
▁command	-423
fter	-424
▁bre	-425
▁back	-426
▁ob	-427
fere	-428
ave	-429
▁day	-430
▁what	-431
▁again	-432
llow	-433
▁new	-434
▁first	-435
▁wr	-436
ause	-437
▁more	-438
ft	-439
ks	-440
oy	-441
ram	-442
ound	-443
▁ent	-444
▁down	-445
ody	-446
ved	-447
▁ke	-448
ght	-449
les	-450
ance	-451
ater	-452
ethod	-453
ert	-454
▁use	-455
▁like	-456
▁res	-457
▁some	-458
ree	-459
ence	-460
▁tim	-461
▁pe	-462
▁body	-463
nder	-464
▁For	-465
ather	-466
▁space	-467
nter	-468
ress	-469
▁hand	-470
cl	-471
▁One	-472
reate	-473
▁butt	-474
ff	-475
ary	-476
▁sc	-477
rough	-478
For	-479
▁learn	-480
▁method	-481
▁He	-482
form	-483
▁giv	-484
▁great	-485
▁follow	-486
ode	-487
ield	-488
▁val	-489
ition	-490
▁numb	-491
▁called	-492
ren	-493
▁If	-494
▁spe	-495
ven	-496
▁Se	-497
ry	-498
▁3	-499
▁men	-500
▁page	-501
▁same	-502
hes	-503
▁ap	-504
▁bel	-505
▁ser	-506
▁through	-507
▁Here	-508
ents	-509
lease	-510
▁Sp	-511
▁word	-512
ci	-513
▁-	-514
But	-515
▁sl	-516
▁press	-517
itt	-518
▁rec	-519
▁part	-520
ge	-521
hed	-522
▁acc	-523
▁set	-524
▁button	-525
,"	-526
yp	-527
▁ear	-528
ap	-529
ract	-530
▁form	-531
ves	-532
▁gr	-533
:"	-534
ec	-535
ove	-536
▁Enter	-537
min	-538
up	-539
old	-540
ered	-541
ical	-542
▁dif	-543
▁lay	-544
▁hath	-545
▁wind	-546
▁class	-547
▁prog	-548
te	-549
▁“	-550
ade	-551
▁good	-552
▁many	-553
▁before	-554
ont	-555
▁used	-556
▁work	-557
▁every	-558
▁field	-559
▁Boy	-560
▁che	-561
▁time	-562
urn	-563
▁un	-564
ated	-565
rist	-566
▁inst	-567
▁only	-568
▁open	-569
▁because	-570
▁en	-571
▁left	-572
▁line	-573
The	-574
act	-575
ants	-576
▁aw	-577
▁def	-578
▁thee	-579
▁image	-580
▁Christ	-581
sion	-582
etail	-583
ments	-584
▁stud	-585
▁program	-586
?"	-587
▁Ne	-588
ower	-589
▁both	-590
ull	-591
▁rem	-592
▁give	-593
▁want	-594
▁bl	-595
▁des	-596
▁Then	-597
▁came	-598
▁comp	-599
▁under	-600
▁differe	-601
▁ey	-602
▁sy	-603
▁imp	-604
▁thy	-605
▁text	-606
▁number	-607
ama	-608
get	-609
▁print	-610
▁ass	-611
▁ind	-612
▁way	-613
ople	-614
▁box	-615
▁her	-616
round	-617
▁than	-618
▁after	-619
▁where	-620
ox	-621
ote	-622
self	-623
▁bet	-624
▁change	-625
lp	-626
ars	-627
ash	-628
▁create	-629
we	-630
per	-631
▁pass	-632
ah	-633
ife	-634
etails	-635
▁variable	-636
os	-637
ruct	-638
▁window	-639
▁help	-640
▁make	-641
▁displays	-642
ms	-643
ood	-644
ors	-645
ward	-646
▁dot	-647
▁ver	-648
stem	-649
▁link	-650
br	-651
wn	-652
ook	-653
▁cur	-654
▁web	-655
▁been	-656
▁dire	-657
rib	-658
▁la	-659
load	-660
▁look	-661
▁need	-662
▁tool	-663
▁belie	-664
▁people	-665
ful	-666
read	-667
ample	-668
▁over	-669
▁saying	-670
▁different	-671
ute	-672
▁As	-673
▁she	-674
▁layer	-675
▁object	-676
▁output	-677
rop	-678
▁spoken	-679
▁av	-680
ving	-681
▁end	-682
▁fun	-683
▁key	-684
▁These	-685
▁creat	-686
▁Tutorial	-687
ces	-688
ied	-689
▁Sh	-690
edit	-691
▁What	-692
▁water	-693
▁Spoken	-694
ost	-695
▁sm	-696
▁appe	-697
▁whom	-698
▁There	-699
▁record	-700
li	-701
aint	-702
▁another	-703
ray	-704
▁ro	-705
arch	-706
cess	-707
▁sub	-708
▁tab	-709
▁food	-710
▁details	-711
ax	-712
sw	-713
▁5	-714
▁Ad	-715
▁Go	-716
▁equ	-717
▁cour	-718
▁check	-719
▁assign	-720
▁et	-721
ates	-722
▁made	-723
ya	-724
ott	-725
ues	-726
▁Pr	-727
▁min	-728
▁own	-729
ature	-730
▁head	-731
▁please	-732
ia	-733
▁Ar	-734
ions	-735
ning	-736
▁top	-737
▁Type	-738
▁pract	-739
▁those	-740
▁following	-741
ale	-742
gin	-743
ault	-744
ither	-745
▁cond	-746
▁start	-747
▁while	-748
ailable	-749
ally	-750
▁cle	-751
▁sim	-752
▁str	-753
▁next	-754
▁user	-755
▁value	-756
ark	-757
ouse	-758
ought	-759
--	-760
00	-761
;"	-762
na	-763
▁‘	-764
ata	-765
odu	-766
ages	-767
▁blo	-768
▁Next	-769
▁answ	-770
▁mult	-771
▁state	-772
▁function	-773
▁available	-774
▁i	-775
alk	-776
ize	-777
row	-778
ser	-779
▁em	-780
▁cor	-781
▁done	-782
▁less	-783
▁move	-784
▁rece	-785
▁went	-786
▁equal	-787
▁direct	-788
▁4	-789
....	-790
▁Pro	-791
▁mus	-792
▁sin	-793
▁code	-794
▁even	-795
▁exec	-796
dom	-797
ify	-798
its	-799
▁dr	-800
▁list	-801
ations	-802
▁enter	-803
▁world	-804
▁breath	-805
cre	-806
har	-807
Then	-808
ever	-809
▁Ind	-810
▁par	-811
▁tak	-812
acket	-813
▁must	-814
▁side	-815
▁given	-816
▁write	-817
bu	-818
err	-819
▁gl	-820
ible	-821
▁nam	-822
▁Save	-823
▁book	-824
▁example	-825
gan	-826
ons	-827
aven	-828
ines	-829
▁dev	-830
▁rel	-831
acher	-832
▁prom	-833
ef	-834
ew	-835
ph	-836
als	-837
ava	-838
▁Fr	-839
▁fa	-840
▁fl	-841
itch	-842
oice	-843
side	-844
tern	-845
ween	-846
▁leg	-847
▁child	-848
▁files	-849
▁import	-850
▁bracket	-851
▁.	-852
ask	-853
▁But	-854
▁life	-855
▁mind	-856
▁read	-857
▁disci	-858
▁speak	-859
▁Select	-860
▁between	-861
0.	-862
inu	-863
▁1.	-864
▁Te	-865
pect	-866
▁app	-867
▁eat	-868
▁etc	-869
▁ret	-870
▁typ	-871
▁king	-872
▁take	-873
▁power	-874
▁shown	-875
▁therefore	-876
▁Sy	-877
▁ic	-878
irit	-879
▁clo	-880
▁run	-881
▁They	-882
▁bott	-883
▁saith	-884
sp	-885
come	-886
less	-887
▁ang	-888
▁err	-889
ialog	-890
▁menu	-891
▁might	-892
▁Father	-893
▁inform	-894
▁default	-895
Th	-896
ner	-897
raw	-898
▁bar	-899
▁off	-900
▁tem	-901
▁test	-902
▁found	-903
▁place	-904
▁plants	-905
nce	-906
▁ra	-907
▁Man	-908
▁did	-909
▁char	-910
▁very	-911
▁earth	-912
▁think	-913
oga	-914
red	-915
▁Ex	-916
oose	-917
▁vis	-918
▁such	-919
▁upon	-920
▁Press	-921
▁faith	-922
▁comple	-923
▁heaven	-924
▁project	-925
ix	-926
ub	-927
ick	-928
ush	-929
▁Bh	-930
hold	-931
ific	-932
ples	-933
▁put	-934
asana	-935
ermin	-936
▁prop	-937
▁const	-938
▁quest	-939
▁would	-940
▁course	-941
▁within	-942
Wh	-943
ted	-944
▁sw	-945
ared	-946
▁bas	-947
▁dou	-948
▁pat	-949
▁requ	-950
▁sent	-951
gether	-952
▁hands	-953
▁means	-954
▁process	-955
▁together	-956
▁assignment	-957
▁information	-958
igh	-959
uth	-960
▁3.	-961
ains	-962
reen	-963
ular	-964
▁its	-965
▁each	-966
▁bottom	-967
▁colour	-968
▁section	-969
mb	-970
ange	-971
cond	-972
ener	-973
▁rep	-974
brary	-975
▁dialog	-976
▁against	-977
▁created	-978
▁•	-979
eous	-980
▁law	-981
▁eyes	-982
▁love	-983
▁main	-984
▁learnt	-985
ma	-986
tr	-987
ank	-988
▁An	-989
▁Be	-990
▁att	-991
lcome	-992
▁cert	-993
▁edit	-994
▁oper	-995
▁supp	-996
ee	-997
hal	-998
ird	-999
▁pri	-1000
▁drop	-1001
▁show	-1002
selves	-1003
▁array	-1004
▁being	-1005
▁heart	-1006
▁house	-1007
oc	-1008
ily	-1009
▁2.	-1010
▁Li	-1011
▁Re	-1012
▁expl	-1013
▁long	-1014
▁sing	-1015
essage	-1016
▁gives	-1017
▁heard	-1018
▁small	-1019
▁return	-1020
▁various	-1021
▁selected	-1022
▁tutorials	-1023
In	-1024
ger	-1025
rit	-1026
▁bu	-1027
▁Son	-1028
▁ele	-1029
▁play	-1030
▁sequ	-1031
▁above	-1032
▁system	-1033
▁options	-1034
▁without	-1035
ntu	-1036
str	-1037
eter	-1038
ides	-1039
ting	-1040
▁fru	-1041
▁red	-1042
buntu	-1043
▁File	-1044
▁fold	-1045
▁icon	-1046
▁color	-1047
▁inter	-1048
erminal	-1049
▁values	-1050
▁Welcome	-1051
▁disciples	-1052
ara	-1053
▁co	-1054
atch	-1055
inux	-1056
ious	-1057
word	-1058
▁sum	-1059
ffect	-1060
ution	-1061
▁away	-1062
▁among	-1063
▁error	-1064
▁choose	-1065
▁mother	-1066
▁second	-1067
▁displayed	-1068
apt	-1069
der	-1070
fox	-1071
vel	-1072
▁De	-1073
▁ev	-1074
atic	-1075
inal	-1076
▁reg	-1077
ready	-1078
▁data	-1079
▁serv	-1080
irefox	-1081
ission	-1082
▁Linux	-1083
▁begin	-1084
▁opens	-1085
▁three	-1086
▁Ubuntu	-1087
▁version	-1088
▁children	-1089
▁condition	-1090
alt	-1091
ced	-1092
trl	-1093
uch	-1094
▁Al	-1095
ator	-1096
ices	-1097
ired	-1098
▁How	-1099
▁ask	-1100
ledge	-1101
wards	-1102
▁draw	-1103
▁happ	-1104
▁already	-1105
▁himself	-1106
▁,	-1107
dit	-1108
het	-1109
rol	-1110
ilar	-1111
iver	-1112
ures	-1113
▁Add	-1114
▁eye	-1115
▁saw	-1116
▁son	-1117
▁able	-1118
▁does	-1119
▁four	-1120
▁loop	-1121
▁save	-1122
▁whose	-1123
▁words	-1124
▁father	-1125
▁practice	-1126
▁directory	-1127
▁statement	-1128
”.	-1129
ateg	-1130
▁ref	-1131
▁cast	-1132
▁cons	-1133
▁find	-1134
▁home	-1135
ccount	-1136
▁bring	-1137
▁whole	-1138
aj	-1139
ber	-1140
cle	-1141
und	-1142
▁Is	-1143
▁ho	-1144
ained	-1145
erson	-1146
ities	-1147
itten	-1148
stand	-1149
▁hear	-1150
▁thing	-1151
▁inside	-1152
▁Project	-1153
▁terminal	-1154
▁breathing	-1155
).	-1156
ief	-1157
oha	-1158
omp	-1159
rah	-1160
▁Kr	-1161
▁liv	-1162
serve	-1163
thren	-1164
▁Ctrl	-1165
▁anim	-1166
▁just	-1167
▁keep	-1168
▁stra	-1169
▁helps	-1170
lication	-1171
▁written	-1172
▁answered	-1173
▁sequence	-1174
▁important	-1175
".	-1176
1.	-1177
els	-1178
iew	-1179
way	-1180
▁id	-1181
sent	-1182
ship	-1183
▁Not	-1184
▁mar	-1185
▁Koha	-1186
▁That	-1187
▁legs	-1188
▁lines	-1189
▁multi	-1190
▁folder	-1191
▁brought	-1192
▁message	-1193
▁knowledge	-1194
He	-1195
ret	-1196
ript	-1197
▁div	-1198
▁loc	-1199
ating	-1200
oodle	-1201
▁Child	-1202
▁count	-1203
▁indic	-1204
▁known	-1205
▁named	-1206
▁organ	-1207
▁Moodle	-1208
▁Firefox	-1209
▁neither	-1210
▁perform	-1211
▁teacher	-1212
▁brackets	-1213
MP	-1214
be	-1215
ys	-1216
▁+	-1217
▁0	-1218
any	-1219
ape	-1220
▁Do	-1221
hing	-1222
ipse	-1223
ouch	-1224
wise	-1225
▁Who	-1226
▁act	-1227
▁exp	-1228
▁tre	-1229
ified	-1230
ittle	-1231
ource	-1232
▁When	-1233
▁decl	-1234
▁kind	-1235
▁rest	-1236
▁seen	-1237
▁spec	-1238
▁step	-1239
▁blood	-1240
▁point	-1241
▁table	-1242
▁result	-1243
▁appears	-1244
▁brethren	-1245
kt	-1246
▁""	-1247
▁ph	-1248
ases	-1249
clud	-1250
roll	-1251
▁ext	-1252
▁mak	-1253
▁pal	-1254
arent	-1255
illed	-1256
▁area	-1257
▁took	-1258
▁close	-1259
▁incre	-1260
▁light	-1261
▁double	-1262
▁lesson	-1263
▁nature	-1264
▁search	-1265
▁nothing	-1266
▁objects	-1267
'.	-1268
__	-1269
aul	-1270
cus	-1271
not	-1272
▁Su	-1273
▁sk	-1274
down	-1275
▁All	-1276
▁city	-1277
▁dele	-1278
▁path	-1279
▁summ	-1280
▁webs	-1281
▁well	-1282
ording	-1283
▁added	-1284
▁forth	-1285
▁works	-1286
▁prompt	-1287
▁struct	-1288
▁believe	-1289
▁install	-1290
▁kingdom	-1291
▁prophet	-1292
▁student	-1293
▁righteous	-1294
▁understand	-1295
ST	-1296
ex	-1297
me	-1298
ng	-1299
lop	-1300
mic	-1301
pen	-1302
▁My	-1303
hale	-1304
ived	-1305
name	-1306
ying	-1307
▁Jew	-1308
▁car	-1309
▁cop	-1310
▁fle	-1311
▁mod	-1312
ished	-1313
▁Stud	-1314
▁Yoga	-1315
▁days	-1316
▁prev	-1317
ructor	-1318
▁India	-1319
▁trans	-1320
▁voice	-1321
▁Please	-1322
▁System	-1323
▁ground	-1324
▁changes	-1325
▁pattern	-1326
▁respect	-1327
.0	-1328
If	-1329
bo	-1330
ze	-1331
com	-1332
edi	-1333
gen	-1334
ita	-1335
jun	-1336
ung	-1337
vas	-1338
ager	-1339
ches	-1340
oint	-1341
outh	-1342
part	-1343
aning	-1344
velop	-1345
▁Java	-1346
▁case	-1347
▁last	-1348
▁most	-1349
▁pray	-1350
▁true	-1351
soever	-1352
▁Krish	-1353
▁Those	-1354
▁brows	-1355
▁peace	-1356
▁Create	-1357
▁format	-1358
▁little	-1359
▁parent	-1360
▁spirit	-1361
herefore	-1362
▁Library	-1363
▁brother	-1364
▁download	-1365
▁straight	-1366
()	-1367
NA	-1368
box	-1369
erc	-1370
ian	-1371
ics	-1372
ses	-1373
aves	-1374
cles	-1375
istr	-1376
otes	-1377
rect	-1378
ully	-1379
urch	-1380
▁Des	-1381
▁Jer	-1382
▁Sam	-1383
▁Ser	-1384
▁awk	-1385
▁bit	-1386
▁jud	-1387
ayama	-1388
ering	-1389
nding	-1390
▁conc	-1391
ctions	-1392
▁stand	-1393
▁Notice	-1394
▁access	-1395
▁priest	-1396
▁switch	-1397
▁receive	-1398
▁support	-1399
▁website	-1400
▁question	-1401
ME	-1402
▁7	-1403
▁X	-1404
cts	-1405
ier	-1406
men	-1407
nal	-1408
▁ID	-1409
ined	-1410
lier	-1411
▁air	-1412
▁hum	-1413
▁sit	-1414
▁wom	-1415
uring	-1416
▁Edit	-1417
▁Note	-1418
▁Rama	-1419
▁dead	-1420
▁much	-1421
▁tell	-1422
▁could	-1423
▁mount	-1424
▁param	-1425
▁fields	-1426
▁having	-1427
▁includ	-1428
▁person	-1429
▁certain	-1430
▁execute	-1431
It	-1432
ON	-1433
go	-1434
Now	-1435
adi	-1436
idd	-1437
ift	-1438
ilt	-1439
ops	-1440
alem	-1441
cept	-1442
face	-1443
ried	-1444
board	-1445
ccess	-1446
ually	-1447
▁feet	-1448
▁fore	-1449
▁tree	-1450
▁gener	-1451
▁paint	-1452
▁taken	-1453
▁truth	-1454
▁white	-1455
▁string	-1456
tutorial	-1457
▁control	-1458
▁variables	-1459
arm	-1460
ock	-1461
org	-1462
▁5.	-1463
▁By	-1464
▁Or	-1465
▁di	-1466
▁el	-1467
atab	-1468
▁cir	-1469
▁god	-1470
▁gra	-1471
▁mat	-1472
▁pos	-1473
▁too	-1474
▁whe	-1475
acter	-1476
ument	-1477
▁ever	-1478
▁item	-1479
▁poss	-1480
▁prot	-1481
▁walk	-1482
clipse	-1483
haling	-1484
usalem	-1485
▁remem	-1486
▁round	-1487
▁shows	-1488
▁slash	-1489
▁visit	-1490
▁cannot	-1491
▁depart	-1492
▁earlier	-1493
▁Jerusalem	-1494
▁according	-1495
▁application	-1496
▁constructor	-1497
CT	-1498
gg	-1499
orn	-1500
sor	-1501
umn	-1502
▁10	-1503
▁Pl	-1504
▁ac	-1505
anel	-1506
iend	-1507
▁Sim	-1508
▁hyp	-1509
▁inv	-1510
▁old	-1511
▁sea	-1512
▁yet	-1513
▁Cont	-1514
▁Jews	-1515
▁With	-1516
▁cook	-1517
▁dark	-1518
▁dest	-1519
▁five	-1520
▁gave	-1521
▁note	-1522
▁suff	-1523
icular	-1524
▁Arjun	-1525
▁categ	-1526
▁death	-1527
▁glory	-1528
▁produ	-1529
▁relax	-1530
▁users	-1531
▁Change	-1532
▁behold	-1533
▁friend	-1534
▁browser	-1535
▁similar	-1536
▁summari	-1537
▁complete	-1538
io	-1539
mp	-1540
▁6	-1541
ilk	-1542
loy	-1543
ual	-1544
▁4.	-1545
▁Ob	-1546
iled	-1547
olon	-1548
omes	-1549
rent	-1550
▁Sup	-1551
▁nor	-1552
angle	-1553
ators	-1554
fully	-1555
orrow	-1556
▁call	-1557
▁fing	-1558
▁hast	-1559
▁post	-1560
▁seed	-1561
ically	-1562
▁First	-1563
▁Front	-1564
▁admin	-1565
▁below	-1566
▁mouth	-1567
▁order	-1568
▁saved	-1569
▁spake	-1570
▁types	-1571
▁temple	-1572
▁Krishna	-1573
▁Student	-1574
▁muscles	-1575
ccounting	-1576
▁clicking	-1577
▁elements	-1578
▁selection	-1579
▁structure	-1580
Be	-1581
ib	-1582
▁Q	-1583
One	-1584
cul	-1585
eep	-1586
When	-1587
fect	-1588
ided	-1589
ised	-1590
▁art	-1591
▁don	-1592
▁sal	-1593
▁More	-1594
▁cent	-1595
▁dise	-1596
▁evil	-1597
▁fire	-1598
▁heal	-1599
▁ment	-1600
uments	-1601
▁fruit	-1602
▁seven	-1603
▁shalt	-1604
micolon	-1605
▁cometh	-1606
▁screen	-1607
▁single	-1608
▁Manager	-1609
▁animals	-1610
▁methods	-1611
▁success	-1612
01	-1613
day	-1614
ead	-1615
emo	-1616
oud	-1617
spe	-1618
▁Ab	-1619
▁Sw	-1620
▁ve	-1621
aces	-1622
anas	-1623
angu	-1624
ched	-1625
omet	-1626
uted	-1627
vern	-1628
ways	-1629
▁Bre	-1630
▁Set	-1631
▁eas	-1632
▁flo	-1633
▁got	-1634
▁sun	-1635
▁try	-1636
aught	-1637
itial	-1638
ories	-1639
thing	-1640
▁Book	-1641
▁conf	-1642
▁drag	-1643
▁live	-1644
▁prov	-1645
▁block	-1646
▁clean	-1647
▁comes	-1648
▁doing	-1649
▁flesh	-1650
▁input	-1651
▁short	-1652
▁store	-1653
atabase	-1654
▁Arjuna	-1655
▁around	-1656
▁canvas	-1657
▁common	-1658
▁delete	-1659
▁leaves	-1660
▁living	-1661
▁others	-1662
▁entered	-1663
▁numbers	-1664
▁protect	-1665
▁password	-1666
▁prophets	-1667
ik	-1668
oh	-1669
att	-1670
ron	-1671
This	-1672
atur	-1673
ives	-1674
rodu	-1675
sing	-1676
▁doc	-1677
▁pur	-1678
▁wit	-1679
▁date	-1680
▁high	-1681
▁front	-1682
▁FrontA	-1683
▁Spirit	-1684
▁affect	-1685
▁appear	-1686
▁source	-1687
▁position	-1688
▁semicolon	-1689
▁FrontAccounting	-1690
xy	-1691
▁:	-1692
cel	-1693
ict	-1694
iqu	-1695
mon	-1696
txt	-1697
▁Sa	-1698
▁gu	-1699
ased	-1700
fort	-1701
ideo	-1702
itud	-1703
ized	-1704
krit	-1705
line	-1706
▁IDE	-1707
▁sep	-1708
alled	-1709
▁From	-1710
▁Name	-1711
▁dist	-1712
▁face	-1713
▁full	-1714
▁mask	-1715
▁ship	-1716
alance	-1717
ground	-1718
spoken	-1719
▁After	-1720
▁brush	-1721
▁build	-1722
▁chief	-1723
▁music	-1724
▁sound	-1725
▁become	-1726
▁script	-1727
▁simple	-1728
▁typing	-1729
▁becomes	-1730
▁current	-1731
▁develop	-1732
▁happens	-1733
▁organis	-1734
▁perfect	-1735
▁believed	-1736
▁multiple	-1737
▁students	-1738
▁righteousness	-1739
++	-1740
2.	-1741
▁9	-1742
ION	-1743
arn	-1744
iti	-1745
▁OS	-1746
▁Sc	-1747
----	-1748
heck	-1749
ider	-1750
ists	-1751
mail	-1752
nces	-1753
olog	-1754
owly	-1755
vers	-1756
▁arm	-1757
▁aut	-1758
▁fal	-1759
▁fin	-1760
▁gre	-1761
ached	-1762
ently	-1763
ifest	-1764
ility	-1765
iness	-1766
ister	-1767
▁Open	-1768
▁Paul	-1769
▁fill	-1770
▁free	-1771
▁gets	-1772
▁langu	-1773
▁level	-1774
▁parts	-1775
▁takes	-1776
▁video	-1777
▁amount	-1778
▁Eclipse	-1779
▁Teacher	-1780
▁present	-1781
▁possible	-1782
▁required	-1783
▁particular	-1784
""	-1785
AS	-1786
As	-1787
To	-1788
az	-1789
gy	-1790
ob	-1791
’.	-1792
▁?	-1793
enc	-1794
ets	-1795
ohn	-1796
rite	-1797
ross	-1798
▁cre	-1799
▁cut	-1800
▁fam	-1801
▁rot	-1802
▁und	-1803
▁war	-1804
After	-1805
eters	-1806
loyee	-1807
ormal	-1808
tings	-1809
ustom	-1810
▁Comp	-1811
▁fell	-1812
▁hold	-1813
▁rect	-1814
▁says	-1815
▁till	-1816
▁year	-1817
ackage	-1818
athing	-1819
ension	-1820
lessed	-1821
▁basic	-1822
▁clear	-1823
▁email	-1824
▁grace	-1825
▁ident	-1826
▁leave	-1827
anayama	-1828
▁better	-1829
▁circle	-1830
▁destro	-1831
▁opened	-1832
▁quotes	-1833
........	-1834
▁account	-1835
▁address	-1836
▁greater	-1837
▁manifest	-1838
▁previous	-1839
▁interface	-1840
ls	-1841
eta	-1842
oke	-1843
ole	-1844
▁At	-1845
▁On	-1846
aced	-1847
atha	-1848
iers	-1849
▁Con	-1850
▁New	-1851
▁cow	-1852
▁tit	-1853
retch	-1854
▁Come	-1855
▁John	-1856
▁Make	-1857
▁care	-1858
▁copy	-1859
▁inte	-1860
▁milk	-1861
▁send	-1862
▁view	-1863
▁Under	-1864
▁drink	-1865
▁index	-1866
▁night	-1867
▁steps	-1868
▁touch	-1869
▁watch	-1870
anskrit	-1871
▁church	-1872
▁corner	-1873
▁hyphen	-1874
▁Observe	-1875
▁comfort	-1876
▁correct	-1877
▁country	-1878
▁witness	-1879
▁declared	-1880
▁multitud	-1881
▁received	-1882
▁beginning	-1883
.04	-1884
bed	-1885
hem	-1886
thy	-1887
▁Ag	-1888
▁Bl	-1889
▁Cl	-1890
▁Gr	-1891
▁Le	-1892
▁Up	-1893
cape	-1894
inue	-1895
iron	-1896
ital	-1897
ktop	-1898
pped	-1899
reme	-1900
▁arg	-1901
▁far	-1902
▁lot	-1903
▁org	-1904
▁ple	-1905
▁pop	-1906
▁squ	-1907
▁thr	-1908
ables	-1909
arden	-1910
ately	-1911
▁Keep	-1912
▁Tool	-1913
▁bird	-1914
▁blue	-1915
▁holy	-1916
▁hour	-1917
▁judg	-1918
▁mark	-1919
▁shew	-1920
▁size	-1921
aining	-1922
▁Peter	-1923
▁devil	-1924
▁names	-1925
▁times	-1926
▁trees	-1927
▁until	-1928
▁column	-1929
▁comput	-1930
▁server	-1931
▁static	-1932
▁meaning	-1933
▁whether	-1934
▁working	-1935
▁worship	-1936
▁increase	-1937
▁installed	-1938
▁summarize	-1939
▁respective	-1940
▁yourselves	-1941
bt	-1942
▁z	-1943
AMP	-1944
ICT	-1945
adh	-1946
anc	-1947
ati	-1948
aus	-1949
let	-1950
lok	-1951
▁Br	-1952
▁Tr	-1953
AMPP	-1954
They	-1955
ands	-1956
aste	-1957
ceed	-1958
edic	-1959
ones	-1960
peat	-1961
utes	-1962
ware	-1963
▁Bud	-1964
▁Mar	-1965
▁Pre	-1966
▁She	-1967
▁Sth	-1968
▁Why	-1969
▁bes	-1970
▁lab	-1971
▁mon	-1972
▁occ	-1973
▁ten	-1974
▁why	-1975
MEICT	-1976
aster	-1977
asure	-1978
click	-1979
▁Phar	-1980
▁flow	-1981
▁memb	-1982
▁plus	-1983
▁pull	-1984
▁remo	-1985
▁site	-1986
▁sold	-1987
▁talk	-1988
▁turn	-1989
▁wife	-1990
▁XAMPP	-1991
▁black	-1992
▁cause	-1993
▁later	-1994
▁raise	-1995
▁years	-1996
▁always	-1997
▁editor	-1998
▁making	-1999
▁proble	-2000
▁proper	-2001
▁remove	-2002
▁suffer	-2003
▁Pharise	-2004
▁destroy	-2005
▁explain	-2006
▁visible	-2007
▁category	-2008
▁document	-2009
▁followed	-2010
▁keyboard	-2011
▁remember	-2012
▁affection	-2013
▁practices	-2014
▁questions	-2015
▁parameters	-2016
cu	-2017
ww	-2018
▁–	-2019
cri	-2020
lev	-2021
man	-2022
sed	-2023
▁12	-2024
▁OK	-2025
▁ht	-2026
iles	-2027
ogle	-2028
rael	-2029
roup	-2030
▁Dis	-2031
▁ben	-2032
▁inc	-2033
▁inf	-2034
▁joy	-2035
ision	-2036
light	-2037
▁cows	-2038
▁deep	-2039
▁fear	-2040
▁feel	-2041
▁laid	-2042
▁once	-2043
▁sign	-2044
▁soft	-2045
▁star	-2046
▁sure	-2047
▁trib	-2048
▁yoga	-2049
ometim	-2050
▁Sales	-2051
▁asked	-2052
▁bread	-2053
▁chari	-2054
▁mater	-2055
▁minus	-2056
▁mouse	-2057
▁never	-2058
▁palms	-2059
▁plant	-2060
▁river	-2061
▁stood	-2062
▁Indian	-2063
▁Israel	-2064
▁Search	-2065
▁coming	-2066
▁conver	-2067
cription	-2068
▁content	-2069
▁feature	-2070
▁initial	-2071
▁mission	-2072
▁require	-2073
▁thought	-2074
▁database	-2075
▁administr	-2076
▁functions	-2077
▁statements	-2078
10	-2079
AR	-2080
RD	-2081
Te	-2082
lf	-2083
of	-2084
aka	-2085
ell	-2086
erv	-2087
ric	-2088
uru	-2089
▁16	-2090
▁Fe	-2091
That	-2092
avig	-2093
file	-2094
lose	-2095
mong	-2096
nect	-2097
oses	-2098
pend	-2099
ries	-2100
▁Run	-2101
▁See	-2102
▁Typ	-2103
▁fur	-2104
▁imm	-2105
▁sat	-2106
▁tag	-2107
shops	-2108
stril	-2109
uthor	-2110
▁Text	-2111
▁Thou	-2112
▁Wind	-2113
▁bond	-2114
▁clot	-2115
▁kept	-2116
▁lead	-2117
▁near	-2118
▁orig	-2119
▁song	-2120
▁tong	-2121
▁vill	-2122
itting	-2123
ources	-2124
ration	-2125
▁Check	-2126
▁Gener	-2127
▁Which	-2128
▁activ	-2129
▁aware	-2130
▁blank	-2131
▁false	-2132
▁green	-2133
▁panel	-2134
▁story	-2135
▁thine	-2136
▁third	-2137
ational	-2138
▁Sthiti	-2139
▁action	-2140
▁discus	-2141
▁fruits	-2142
▁garden	-2143
▁square	-2144
▁useful	-2145
▁compile	-2146
▁nostril	-2147
▁observe	-2148
▁priests	-2149
▁servants	-2150
▁Breathing	-2151
▁parenthes	-2152
▁rectangle	-2153
▁everything	-2154
//	-2155
ER	-2156
nc	-2157
nu	-2158
yd	-2159
▁8	-2160
▁Z	-2161
▁x	-2162
eds	-2163
ins	-2164
ips	-2165
ken	-2166
llo	-2167
mar	-2168
res	-2169
ulf	-2170
▁Ap	-2171
▁Av	-2172
▁ge	-2173
▁wa	-2174
anam	-2175
cher	-2176
ites	-2177
ream	-2178
sert	-2179
spel	-2180
▁Cur	-2181
▁Ram	-2182
▁Sur	-2183
▁few	-2184
▁met	-2185
▁oxy	-2186
▁sle	-2187
ience	-2188
raham	-2189
umber	-2190
▁Brah	-2191
▁Inks	-2192
▁Move	-2193
▁Some	-2194
▁arms	-2195
▁fast	-2196
▁forg	-2197
▁glor	-2198
▁mole	-2199
▁sake	-2200
▁autom	-2201
▁cloth	-2202
▁condu	-2203
▁floor	-2204
▁going	-2205
▁marks	-2206
▁refer	-2207
▁stone	-2208
▁Budget	-2209
▁brings	-2210
▁desire	-2211
▁effect	-2212
▁entire	-2213
▁gospel	-2214
▁normal	-2215
▁oxygen	-2216
▁raised	-2217
ferences	-2218
vernment	-2219
▁Abraham	-2220
▁changed	-2221
▁contact	-2222
▁further	-2223
▁library	-2224
▁members	-2225
Therefore	-2226
▁Inkscape	-2227
▁computer	-2228
▁creation	-2229
▁departed	-2230
▁workshops	-2231
/2	-2232
ND	-2233
RL	-2234
tp	-2235
va	-2236
://	-2237
HRD	-2238
chn	-2239
ork	-2240
shi	-2241
▁GI	-2242
aths	-2243
ited	-2244
ming	-2245
owed	-2246
▁Pat	-2247
▁ast	-2248
▁dec	-2249
▁fig	-2250
▁sur	-2251
▁syn	-2252
▁wis	-2253
While	-2254
acing	-2255
areth	-2256
ative	-2257
otion	-2258
owing	-2259
▁Code	-2260
▁Cour	-2261
▁Fill	-2262
▁else	-2263
▁harm	-2264
▁java	-2265
▁lest	-2266
▁ones	-2267
▁prin	-2268
▁reve	-2269
▁root	-2270
▁self	-2271
▁shar	-2272
▁soil	-2273
▁symb	-2274
▁toes	-2275
▁Inter	-2276
▁Write	-2277
▁angel	-2278
▁based	-2279
▁break	-2280
▁demon	-2281
▁final	-2282
▁group	-2283
▁separ	-2284
▁teach	-2285
mployee	-2286
▁compon	-2287
▁custom	-2288
▁devote	-2289
▁during	-2290
▁finger	-2291
▁manner	-2292
▁molecu	-2293
▁series	-2294
▁strong	-2295
▁thread	-2296
ometimes	-2297
▁Windows	-2298
▁courses	-2299
▁running	-2300
roduction	-2301
▁certific	-2302
▁language	-2303
▁mountain	-2304
▁indicates	-2305
▁themselves	-2306
▁successfully	-2307
',	-2308
ps	-2309
uc	-2310
EST	-2311
abb	-2312
abh	-2313
air	-2314
ala	-2315
amb	-2316
end	-2317
ern	-2318
olk	-2319
sol	-2320
the	-2321
udd	-2322
▁"•	-2323
▁Bu	-2324
▁La	-2325
▁ed	-2326
▁ii	-2327
▁ls	-2328
arya	-2329
crib	-2330
host	-2331
ient	-2332
ises	-2333
reng	-2334
rine	-2335
ring	-2336
roke	-2337
ught	-2338
umer	-2339
▁Fin	-2340
▁His	-2341
▁Net	-2342
▁Rem	-2343
▁Sit	-2344
▁Use	-2345
▁bur	-2346
▁cat	-2347
▁lar	-2348
▁obt	-2349
▁Bhag	-2350
▁GIMP	-2351
▁Many	-2352
▁born	-2353
▁foot	-2354
▁keys	-2355
▁land	-2356
▁lord	-2357
▁mach	-2358
▁sins	-2359
acters	-2360
▁Admin	-2361
▁Close	-2362
▁align	-2363
▁benef	-2364
▁chest	-2365
▁cried	-2366
▁doubt	-2367
▁joint	-2368
▁month	-2369
▁serve	-2370
▁sight	-2371
▁techn	-2372
▁trust	-2373
▁woman	-2374
ownload	-2375
▁Switch	-2376
▁beings	-2377
▁cursor	-2378
▁filled	-2379
▁sought	-2380
▁symbol	-2381
▁walked	-2382
▁worshi	-2383
▁Desktop	-2384
▁contrib	-2385
▁proceed	-2386
▁related	-2387
▁servant	-2388
▁Sanskrit	-2389
▁assigned	-2390
▁contains	-2391
▁demonstr	-2392
▁kindness	-2393
▁material	-2394
▁preached	-2395
▁settings	-2396
▁username	-2397
▁Pharisees	-2398
▁Pranayama	-2399
▁character	-2400
▁operators	-2401
▁certificates	-2402
EN	-2403
II	-2404
ug	-2405
wh	-2406
ás	-2407
ति	-2408
्य	-2409
▁=	-2410
...	-2411
acr	-2412
aur	-2413
bon	-2414
cut	-2415
ees	-2416
ged	-2417
ias	-2418
iss	-2419
oly	-2420
pty	-2421
▁Ph	-2422
IONS	-2423
aled	-2424
aras	-2425
ason	-2426
avid	-2427
demo	-2428
ened	-2429
ging	-2430
lock	-2431
oney	-2432
phab	-2433
▁Col	-2434
▁Raj	-2435
▁Sat	-2436
▁Sin	-2437
▁big	-2438
▁cap	-2439
▁dig	-2440
▁emp	-2441
▁gar	-2442
▁nut	-2443
▁pub	-2444
▁sou	-2445
▁ste	-2446
Jesus	-2447
There	-2448
aving	-2449
iddle	-2450
ioned	-2451
▁Also	-2452
▁Inst	-2453
▁King	-2454
▁MHRD	-2455
▁bear	-2456
▁best	-2457
▁doct	-2458
▁fall	-2459
▁foll	-2460
▁fulf	-2461
▁gray	-2462
▁http	-2463
▁kill	-2464
▁phys	-2465
▁prep	-2466
▁wish	-2467
ession	-2468
levant	-2469
▁David	-2470
▁curly	-2471
▁exerc	-2472
▁exist	-2473
▁impro	-2474
▁knees	-2475
▁lower	-2476
▁quick	-2477
▁title	-2478
aintain	-2479
▁alphab	-2480
▁layers	-2481
▁moving	-2482
▁needle	-2483
▁notice	-2484
▁regard	-2485
▁seeing	-2486
▁chariot	-2487
▁concent	-2488
▁cooking	-2489
▁divided	-2490
▁stretch	-2491
▁executed	-2492
▁features	-2493
▁relevant	-2494
▁multitude	-2495
▁supported	-2496
▁Government	-2497
▁characters	-2498
▁completely	-2499
▁worshipped	-2500
▁parentheses	-2501
Ex	-2502
NT	-2503
We	-2504
Ye	-2505
ty	-2506
++.	-2507
000	-2508
ANA	-2509
TeX	-2510
ane	-2511
bit	-2512
ked	-2513
ony	-2514
oom	-2515
rew	-2516
uda	-2517
usb	-2518
▁0.	-2519
▁Mo	-2520
▁No	-2521
▁Ye	-2522
▁jo	-2523
▁ru	-2524
ache	-2525
ense	-2526
illa	-2527
ique	-2528
ison	-2529
ough	-2530
rive	-2531
well	-2532
with	-2533
ydro	-2534
▁Rec	-2535
▁Rel	-2536
▁Ved	-2537
▁del	-2538
▁env	-2539
▁hon	-2540
▁ill	-2541
▁mer	-2542
▁mor	-2543
▁rej	-2544
▁rev	-2545
▁sup	-2546
acity	-2547
anced	-2548
aying	-2549
beans	-2550
ences	-2551
erily	-2552
ining	-2553
iving	-2554
right	-2555
uplic	-2556
ásana	-2557
▁List	-2558
▁Oper	-2559
▁Step	-2560
▁Vish	-2561
▁ener	-2562
▁fund	-2563
▁grow	-2564
▁meat	-2565
▁palm	-2566
▁pres	-2567
▁quiz	-2568
▁sacr	-2569
▁seek	-2570
▁told	-2571
▁vert	-2572
▁wine	-2573
▁wise	-2574
istory	-2575
▁Again	-2576
▁While	-2577
▁abdom	-2578
▁angle	-2579
▁apart	-2580
▁arrow	-2581
▁beast	-2582
▁cross	-2583
▁empty	-2584
▁forms	-2585
▁looks	-2586
▁medit	-2587
▁ought	-2588
▁ready	-2589
▁scrib	-2590
▁shape	-2591
ference	-2592
▁NMEICT	-2593
▁Number	-2594
▁Repeat	-2595
▁angels	-2596
▁cleans	-2597
▁flower	-2598
▁health	-2599
▁immedi	-2600
▁itself	-2601
▁passed	-2602
▁preach	-2603
▁spread	-2604
▁streng	-2605
▁taught	-2606
atically	-2607
halation	-2608
▁Account	-2609
▁Display	-2610
▁However	-2611
▁balance	-2612
▁buttock	-2613
▁colours	-2614
▁continu	-2615
▁defined	-2616
▁express	-2617
▁fathers	-2618
▁follows	-2619
▁integer	-2620
▁machine	-2621
▁opening	-2622
▁problem	-2623
▁records	-2624
Wherefore	-2625
▁identify	-2626
▁movement	-2627
▁returned	-2628
▁execution	-2629
▁organisms	-2630
▁friendship	-2631
AT	-2632
IT	-2633
ML	-2634
QL	-2635
St	-2636
gr	-2637
pr	-2638
▁>	-2639
Let	-2640
aut	-2641
ids	-2642
irm	-2643
ume	-2644
urt	-2645
yth	-2646
▁7.	-2647
▁Me	-2648
▁QU	-2649
▁Un	-2650
anah	-2651
arth	-2652
avas	-2653
bows	-2654
cial	-2655
idth	-2656
ilee	-2657
plet	-2658
tion	-2659
ured	-2660
veth	-2661
work	-2662
▁10.	-2663
▁Gal	-2664
▁Pad	-2665
▁Yes	-2666
▁age	-2667
▁bow	-2668
▁bro	-2669
▁eld	-2670
▁log	-2671
▁mag	-2672
▁oft	-2673
▁sky	-2674
These	-2675
ayana	-2676
cient	-2677
ggest	-2678
odule	-2679
ology	-2680
order	-2681
▁Dhar	-2682
▁Gent	-2683
▁Holy	-2684
▁Supp	-2685
▁Take	-2686
▁Your	-2687
▁bapt	-2688
▁base	-2689
▁bran	-2690
▁ears	-2691
▁grep	-2692
▁hard	-2693
▁husb	-2694
▁knew	-2695
▁neck	-2696
▁pict	-2697
▁qual	-2698
▁rise	-2699
▁roll	-2700
▁sort	-2701
▁wond	-2702
atural	-2703
erties	-2704
ilarly	-2705
▁Pract	-2706
▁QUEST	-2707
▁Simon	-2708
▁Stand	-2709
▁began	-2710
▁books	-2711
▁boxes	-2712
▁comma	-2713
▁cover	-2714
▁exper	-2715
▁hence	-2716
▁human	-2717
▁icons	-2718
▁items	-2719
▁least	-2720
▁login	-2721
▁medic	-2722
▁moved	-2723
▁occur	-2724
▁shlok	-2725
▁tempt	-2726
▁thigh	-2727
▁thous	-2728
Details	-2729
acteria	-2730
mission	-2731
▁Course	-2732
▁Scroll	-2733
▁design	-2734
▁either	-2735
▁forest	-2736
▁humans	-2737
▁images	-2738
▁slider	-2739
▁slowly	-2740
▁verily	-2741
▁wisdom	-2742
▁blessed	-2743
▁collect	-2744
▁comment	-2745
▁connect	-2746
▁desired	-2747
▁disease	-2748
▁element	-2749
▁forward	-2750
▁keyword	-2751
▁subject	-2752
▁suggest	-2753
▁Employee	-2754
▁Netbeans	-2755
▁controls	-2756
▁devotion	-2757
▁diseases	-2758
▁inhaling	-2759
▁judgment	-2760
▁vertical	-2761
▁QUESTIONS	-2762
▁arguments	-2763
▁commanded	-2764
▁mentioned	-2765
▁whosoever	-2766
▁commandment	-2767
▁immediately	-2768
▁installation	-2769
▁administrator	-2770
▁automatically	-2771
▁concentration	-2772
IN	-2773
SS	-2774
So	-2775
by	-2776
fe	-2777
to	-2778
uj	-2779
▁&	-2780
▁/	-2781
▁स	-2782
You	-2783
ams	-2784
ann	-2785
avi	-2786
dir	-2787
ery	-2788
ety	-2789
fer	-2790
fig	-2791
for	-2792
ira	-2793
irs	-2794
ism	-2795
mit	-2796
oid	-2797
rie	-2798
rut	-2799
uff	-2800
unk	-2801
▁11	-2802
▁KT	-2803
▁Qu	-2804
Name	-2805
agog	-2806
alls	-2807
alog	-2808
amas	-2809
ames	-2810
andh	-2811
head	-2812
page	-2813
rose	-2814
udra	-2815
▁Her	-2816
▁Loc	-2817
▁Per	-2818
▁Sub	-2819
▁adj	-2820
▁boy	-2821
▁den	-2822
▁exh	-2823
▁har	-2824
▁mem	-2825
▁non	-2826
▁opt	-2827
▁tot	-2828
ances	-2829
cript	-2830
encil	-2831
fered	-2832
marks	-2833
oxide	-2834
▁Blur	-2835
▁Item	-2836
▁Just	-2837
▁Once	-2838
▁Path	-2839
▁Sita	-2840
▁User	-2841
▁cult	-2842
▁folk	-2843
▁lung	-2844
▁mode	-2845
▁moon	-2846
▁purp	-2847
▁repl	-2848
▁room	-2849
▁sens	-2850
▁soul	-2851
▁stat	-2852
▁stem	-2853
▁stop	-2854
▁thus	-2855
askara	-2856
ivered	-2857
iverse	-2858
resent	-2859
▁16.04	-2860
▁Excel	-2861
▁Moses	-2862
▁Order	-2863
▁Print	-2864
▁Types	-2865
▁apost	-2866
▁arose	-2867
▁birds	-2868
▁built	-2869
▁chapt	-2870
▁dwell	-2871
▁famil	-2872
▁graph	-2873
▁judge	-2874
▁reach	-2875
▁slide	-2876
▁today	-2877
▁wrote	-2878
ception	-2879
▁Before	-2880
▁Serial	-2881
▁author	-2882
▁became	-2883
▁calcul	-2884
▁elbows	-2885
▁except	-2886
▁formed	-2887
▁middle	-2888
▁report	-2889
▁stitch	-2890
▁tongue	-2891
▁weight	-2892
uplicate	-2893
▁Galilee	-2894
▁drawing	-2895
▁fingers	-2896
▁flowers	-2897
▁morning	-2898
▁natural	-2899
▁printed	-2900
▁removed	-2901
▁scribes	-2902
▁synagog	-2903
▁thyself	-2904
▁Download	-2905
▁Gentiles	-2906
▁commands	-2907
▁exhaling	-2908
▁instance	-2909
▁likewise	-2910
▁operator	-2911
▁shoulder	-2912
▁soldiers	-2913
▁starting	-2914
▁studying	-2915
▁Similarly	-2916
▁completed	-2917
▁delivered	-2918
▁ourselves	-2919
▁recording	-2920
▁background	-2921
▁components	-2922
!"	-2923
4.	-2924
EX	-2925
YY	-2926
aw	-2927
bh	-2928
cy	-2929
df	-2930
ek	-2931
ey	-2932
ih	-2933
ln	-2934
017	-2935
How	-2936
TML	-2937
aga	-2938
ats	-2939
fic	-2940
ool	-2941
rom	-2942
uce	-2943
ump	-2944
unt	-2945
yah	-2946
zes	-2947
▁20	-2948
▁Ge	-2949
▁Pe	-2950
▁Vy	-2951
aksh	-2952
anes	-2953
anks	-2954
apes	-2955
back	-2956
cent	-2957
core	-2958
empt	-2959
enth	-2960
etic	-2961
icro	-2962
imum	-2963
most	-2964
ners	-2965
ngth	-2966
ntax	-2967
resp	-2968
riya	-2969
ters	-2970
ural	-2971
▁100	-2972
▁11.	-2973
▁Def	-2974
▁Nam	-2975
▁aff	-2976
▁cry	-2977
▁eng	-2978
▁fix	-2979
▁gat	-2980
▁hid	-2981
▁hig	-2982
▁ins	-2983
▁mid	-2984
▁ord	-2985
▁pix	-2986
▁pot	-2987
▁san	-2988
▁txt	-2989
▁wat	-2990
alcul	-2991
ceive	-2992
celle	-2993
cious	-2994
class	-2995
ernal	-2996
ising	-2997
itted	-2998
lowly	-2999
pping	-3000
ushes	-3001
verse	-3002
zilla	-3003
▁Amen	-3004
▁Both	-3005
▁HTML	-3006
▁Last	-3007
▁Marc	-3008
▁Page	-3009
▁Post	-3010
▁cell	-3011
▁desp	-3012
▁feed	-3013
▁gift	-3014
▁guid	-3015
▁merc	-3016
▁mine	-3017
▁past	-3018
▁poor	-3019
▁pose	-3020
▁sons	-3021
▁stay	-3022
▁ways	-3023
▁wild	-3024
▁zoom	-3025
aneous	-3026
asting	-3027
ential	-3028
erning	-3029
vation	-3030
▁Build	-3031
▁Every	-3032
▁Ghost	-3033
▁Herod	-3034
▁Panel	-3035
▁Shift	-3036
▁Start	-3037
▁aston	-3038
▁dance	-3039
▁fight	-3040
▁focus	-3041
▁forum	-3042
▁grade	-3043
▁often	-3044
▁setup	-3045
▁upper	-3046
▁wrath	-3047
▁young	-3048
acharya	-3049
cending	-3050
cessary	-3051
ination	-3052
itional	-3053
ization	-3054
pending	-3055
▁Asanas	-3056
▁Finish	-3057
▁Method	-3058
▁Stroke	-3059
▁bright	-3060
▁carbon	-3061
▁dissol	-3062
▁easily	-3063
▁eating	-3064
▁energy	-3065
▁length	-3066
▁locate	-3067
▁minute	-3068
▁module	-3069
▁online	-3070
▁pencil	-3071
▁placed	-3072
▁public	-3073
▁rather	-3074
▁shapes	-3075
▁slides	-3076
▁though	-3077
▁upload	-3078
ironment	-3079
▁General	-3080
▁Suppose	-3081
▁ancient	-3082
▁company	-3083
▁eternal	-3084
▁excelle	-3085
▁gathere	-3086
▁harmful	-3087
▁hearing	-3088
▁include	-3089
▁knowing	-3090
▁package	-3091
▁posture	-3092
▁promise	-3093
▁request	-3094
avigation	-3095
ification	-3096
▁alphabet	-3097
▁bacteria	-3098
▁buttocks	-3099
▁devotees	-3100
▁everyone	-3101
▁learning	-3102
▁minister	-3103
▁original	-3104
▁presence	-3105
▁sections	-3106
▁software	-3107
▁awareness	-3108
▁fulfilled	-3109
▁movements	-3110
▁parameter	-3111
▁performed	-3112
▁represent	-3113
▁permission	-3114
▁development	-3115
▁preferences	-3116
5.	-3117
AC	-3118
AN	-3119
Ag	-3120
dd	-3121
hi	-3122
▁प	-3123
ali	-3124
con	-3125
iva	-3126
rav	-3127
ruc	-3128
sha	-3129
ury	-3130
▁50	-3131
▁>>	-3132
▁En	-3133
▁cr	-3134
▁ma	-3135
____	-3136
aria	-3137
erty	-3138
ithm	-3139
nded	-3140
raph	-3141
rees	-3142
rief	-3143
rows	-3144
▁App	-3145
▁Are	-3146
▁Ass	-3147
▁Com	-3148
▁Him	-3149
▁Jan	-3150
▁Mah	-3151
▁Red	-3152
▁Rot	-3153
▁Say	-3154
▁Sum	-3155
▁beh	-3156
▁cup	-3157
▁dam	-3158
▁ess	-3159
▁est	-3160
▁fil	-3161
▁fre	-3162
▁pie	-3163
▁row	-3164
▁six	-3165
▁tar	-3166
▁vir	-3167
▁yog	-3168
ASANA	-3169
Which	-3170
alent	-3171
arian	-3172
icing	-3173
idden	-3174
ilate	-3175
iting	-3176
loved	-3177
ously	-3178
veral	-3179
where	-3180
▁Back	-3181
▁Bhar	-3182
▁Feel	-3183
▁Mary	-3184
▁Serv	-3185
▁Shri	-3186
▁Test	-3187
▁army	-3188
▁atom	-3189
▁bend	-3190
▁crop	-3191
▁deli	-3192
▁fond	-3193
▁fool	-3194
▁goes	-3195
▁inde	-3196
▁inse	-3197
▁iron	-3198
▁medi	-3199
▁none	-3200
▁pack	-3201
▁pure	-3202
▁real	-3203
▁resp	-3204
▁role	-3205
▁subs	-3206
▁trad	-3207
Saying	-3208
ficult	-3209
idence	-3210
▁Class	-3211
▁Files	-3212
▁Hatha	-3213
▁Place	-3214
▁bound	-3215
▁grand	-3216
▁large	-3217
▁makes	-3218
▁perse	-3219
▁spine	-3220
▁women	-3221
agement	-3222
respond	-3223
ruction	-3224
ulation	-3225
▁Choose	-3226
▁Insert	-3227
▁Mother	-3228
▁Remove	-3229
▁Vishnu	-3230
▁answer	-3231
▁border	-3232
▁centre	-3233
▁choice	-3234
▁commun	-3235
▁compil	-3236
▁digest	-3237
▁famili	-3238
▁hearts	-3239
▁longer	-3240
▁reason	-3241
▁repent	-3242
▁scroll	-3243
▁sorrow	-3244
▁states	-3245
▁stored	-3246
▁turned	-3247
▁worthy	-3248
ashboard	-3249
perature	-3250
▁Mozilla	-3251
▁closing	-3252
▁convert	-3253
▁getting	-3254
▁letters	-3255
▁outside	-3256
▁parents	-3257
▁results	-3258
▁several	-3259
▁sitting	-3260
▁special	-3261
▁towards	-3262
▁village	-3263
▁Continue	-3264
▁conducts	-3265
▁continue	-3266
▁creating	-3267
▁darkness	-3268
▁doctrine	-3269
▁entering	-3270
▁examples	-3271
▁faithful	-3272
▁overload	-3273
▁powerful	-3274
▁pressure	-3275
▁speaketh	-3276
▁thousand	-3277
▁Sometimes	-3278
▁Therefore	-3279
▁answering	-3280
▁believeth	-3281
▁difficult	-3282
▁extension	-3283
▁increment	-3284
▁necessary	-3285
▁astonished	-3286
▁concerning	-3287
▁correspond	-3288
▁environment	-3289
),	-3290
6.	-3291
9.	-3292
An	-3293
HA	-3294
PH	-3295
ai	-3296
oe	-3297
wo	-3298
▁क	-3299
)."	-3300
EXT	-3301
PAC	-3302
Who	-3303
YPH	-3304
abl	-3305
add	-3306
alf	-3307
anj	-3308
aya	-3309
bar	-3310
erm	-3311
ime	-3312
iod	-3313
nam	-3314
oes	-3315
oun	-3316
tha	-3317
ura	-3318
▁9.	-3319
▁Bi	-3320
▁Us	-3321
▁Ve	-3322
Edit	-3323
agar	-3324
amed	-3325
aper	-3326
iliz	-3327
irth	-3328
ling	-3329
llar	-3330
napt	-3331
ntro	-3332
osed	-3333
osen	-3334
rupt	-3335
sara	-3336
uman	-3337
urre	-3338
view	-3339
▁Ach	-3340
▁Dou	-3341
▁Eng	-3342
▁INT	-3343
▁Lay	-3344
▁Mat	-3345
▁Our	-3346
▁Res	-3347
▁URL	-3348
▁Yog	-3349
▁ach	-3350
▁adv	-3351
▁dra	-3352
▁eff	-3353
▁fut	-3354
▁inn	-3355
▁iss	-3356
▁pra	-3357
▁pun	-3358
▁rul	-3359
▁sed	-3360
▁sew	-3361
▁sol	-3362
▁unb	-3363
▁upd	-3364
Among	-3365
Where	-3366
YPHEN	-3367
aling	-3368
aring	-3369
atics	-3370
atory	-3371
iders	-3372
irect	-3373
ivers	-3374
otein	-3375
ouses	-3376
plete	-3377
plied	-3378
while	-3379
ython	-3380
▁Draw	-3381
▁Expl	-3382
▁Have	-3383
▁Line	-3384
▁OPAC	-3385
▁Prin	-3386
▁Sukt	-3387
▁Team	-3388
▁acqu	-3389
▁caus	-3390
▁cruc	-3391
▁fert	-3392
▁fine	-3393
▁gone	-3394
▁grie	-3395
▁knee	-3396
▁load	-3397
▁logo	-3398
▁loud	-3399
▁poll	-3400
▁prof	-3401
▁rebu	-3402
action	-3403
ecause	-3404
efined	-3405
istics	-3406
liness	-3407
naptic	-3408
sorbed	-3409
ternal	-3410
uncher	-3411
▁Among	-3412
▁Geeta	-3413
▁Setup	-3414
▁alone	-3415
▁asana	-3416
▁bones	-3417
▁brain	-3418
▁cloud	-3419
▁decre	-3420
▁heads	-3421
▁heels	-3422
▁local	-3423
▁match	-3424
▁nutri	-3425
▁obser	-3426
▁pages	-3427
▁range	-3428
▁seeds	-3429
▁sheep	-3430
▁sleep	-3431
▁songs	-3432
▁speed	-3433
▁stars	-3434
▁super	-3435
▁veget	-3436
adasana	-3437
ensions	-3438
ication	-3439
istered	-3440
ucation	-3441
▁Behold	-3442
▁Calcul	-3443
▁Dharma	-3444
▁Editor	-3445
▁Google	-3446
▁HYPHEN	-3447
▁INTEXT	-3448
▁KTouch	-3449
▁Locate	-3450
▁Person	-3451
▁Upload	-3452
▁afflic	-3453
▁allows	-3454
▁errors	-3455
▁exhale	-3456
▁future	-3457
▁govern	-3458
▁guidel	-3459
▁honour	-3460
▁houses	-3461
▁indeed	-3462
▁matter	-3463
▁mighty	-3464
▁places	-3465
▁player	-3466
▁region	-3467
▁remain	-3468
▁rivers	-3469
▁rounds	-3470
▁throne	-3471
ological	-3472
▁Company	-3473
▁Package	-3474
▁Samsara	-3475
▁attempt	-3476
▁dioxide	-3477
▁extract	-3478
▁friends	-3479
▁history	-3480
▁husband	-3481
▁instead	-3482
▁nations	-3483
▁picture	-3484
▁playing	-3485
▁pleased	-3486
▁rejoice	-3487
▁reverse	-3488
▁session	-3489
▁sources	-3490
urrection	-3491
▁Maintain	-3492
▁MarcEdit	-3493
▁Ramayana	-3494
▁appeared	-3495
▁benefits	-3496
▁existing	-3497
▁fondness	-3498
▁molecule	-3499
▁obtained	-3500
▁packages	-3501
▁painting	-3502
▁performs	-3503
▁pressing	-3504
▁products	-3505
▁provided	-3506
▁touching	-3507
▁Namaskara	-3508
▁Operating	-3509
▁backwards	-3510
▁exercises	-3511
▁explained	-3512
▁salvation	-3513
▁categories	-3514
▁conditions	-3515
▁difference	-3516
▁throughout	-3517
▁whatsoever	-3518
▁directories	-3519
▁temperature	-3520
▁corresponding	-3521
3.	-3522
30	-3523
50	-3524
By	-3525
De	-3526
Or	-3527
RE	-3528
SP	-3529
Sp	-3530
bs	-3531
de	-3532
ky	-3533
ml	-3534
sa	-3535
ym	-3536
्र	-3537
ARC	-3538
SQL	-3539
ajr	-3540
amp	-3541
ech	-3542
emn	-3543
ges	-3544
imp	-3545
ius	-3546
joy	-3547
len	-3548
ney	-3549
now	-3550
ras	-3551
ube	-3552
uck	-3553
une	-3554
use	-3555
www	-3556
▁18	-3557
▁30	-3558
▁Ed	-3559
▁PH	-3560
▁cd	-3561
▁dh	-3562
What	-3563
ades	-3564
adro	-3565
ails	-3566
alle	-3567
anta	-3568
arma	-3569
auss	-3570
bing	-3571
htra	-3572
icks	-3573
iful	-3574
ival	-3575
lish	-3576
odes	-3577
over	-3578
then	-3579
ulch	-3580
umbs	-3581
used	-3582
▁"""	-3583
▁DNA	-3584
▁Doc	-3585
▁Ent	-3586
▁Imp	-3587
▁Sil	-3588
▁Sun	-3589
▁Try	-3590
▁bad	-3591
▁fab	-3592
▁gir	-3593
▁lif	-3594
▁mix	-3595
▁net	-3596
▁tou	-3597
cribe	-3598
ember	-3599
field	-3600
gmail	-3601
icked	-3602
ifier	-3603
imize	-3604
itive	-3605
ivity	-3606
oseph	-3607
otten	-3608
rency	-3609
riate	-3610
rowse	-3611
uddhi	-3612
▁Dele	-3613
▁Fold	-3614
▁Gita	-3615
▁Give	-3616
▁Home	-3617
▁Jour	-3618
▁Juda	-3619
▁Lamb	-3620
▁Like	-3621
▁MARC	-3622
▁Sync	-3623
▁Vajr	-3624
▁abst	-3625
▁capt	-3626
▁comb	-3627
▁door	-3628
▁doth	-3629
▁easy	-3630
▁fact	-3631
▁gods	-3632
▁gold	-3633
▁hang	-3634
▁hope	-3635
▁lock	-3636
▁lust	-3637
▁node	-3638
▁obey	-3639
▁port	-3640
▁safe	-3641
▁simp	-3642
▁subt	-3643
▁tabs	-3644
▁tags	-3645
▁trou	-3646
Behold	-3647
Having	-3648
adient	-3649
father	-3650
ogadro	-3651
overed	-3652
ribute	-3653
ructed	-3654
utions	-3655
▁Array	-3656
▁Hence	-3657
▁Level	-3658
▁Maths	-3659
▁MySQL	-3660
▁Other	-3661
▁Purch	-3662
▁Right	-3663
▁Since	-3664
▁Water	-3665
▁Where	-3666
▁abund	-3667
▁achie	-3668
▁alert	-3669
▁along	-3670
▁beaut	-3671
▁bless	-3672
▁chant	-3673
▁curve	-3674
▁defin	-3675
▁entry	-3676
▁exhib	-3677
▁fists	-3678
▁hydro	-3679
▁kings	-3680
▁lungs	-3681
▁maint	-3682
▁mercy	-3683
▁outer	-3684
▁overr	-3685
▁relig	-3686
▁sanct	-3687
▁sharp	-3688
▁stops	-3689
▁trunk	-3690
▁unbel	-3691
▁uncle	-3692
aussian	-3693
ibility	-3694
ignment	-3695
riangle	-3696
▁Apache	-3697
▁Browse	-3698
▁Double	-3699
▁Inside	-3700
▁Joseph	-3701
▁Master	-3702
▁Option	-3703
▁Patron	-3704
▁Server	-3705
▁Verily	-3706
▁applet	-3707
▁approp	-3708
▁belong	-3709
▁consid	-3710
▁cooked	-3711
▁devils	-3712
▁elders	-3713
▁expand	-3714
▁fabric	-3715
▁famous	-3716
▁forget	-3717
▁giving	-3718
▁height	-3719
▁joints	-3720
▁looked	-3721
▁master	-3722
▁medium	-3723
▁memory	-3724
▁modify	-3725
▁organs	-3726
▁period	-3727
▁prayer	-3728
▁printf	-3729
▁served	-3730
▁speech	-3731
▁stream	-3732
▁syntax	-3733
▁thighs	-3734
▁unique	-3735
▁wicked	-3736
arashtra	-3737
hematics	-3738
imension	-3739
▁Another	-3740
▁Compile	-3741
▁Content	-3742
▁Install	-3743
▁Mission	-3744
▁Profile	-3745
▁Vyayama	-3746
▁capital	-3747
▁clothes	-3748
▁condemn	-3749
▁discipl	-3750
▁editing	-3751
▁explore	-3752
▁extreme	-3753
▁finally	-3754
▁insects	-3755
▁parable	-3756
▁players	-3757
▁println	-3758
▁protein	-3759
▁relaxed	-3760
▁sepulch	-3761
▁sharpen	-3762
▁sliders	-3763
▁started	-3764
▁upwards	-3765
▁windows	-3766
aturation	-3767
istration	-3768
ultaneous	-3769
▁Checkout	-3770
▁Projects	-3771
▁Synaptic	-3772
▁Tadasana	-3773
▁absorbed	-3774
▁addition	-3775
▁anything	-3776
▁apostles	-3777
▁baptized	-3778
▁contents	-3779
▁directly	-3780
▁division	-3781
▁gathered	-3782
▁included	-3783
▁location	-3784
▁organism	-3785
▁patterns	-3786
▁physical	-3787
▁postures	-3788
▁printing	-3789
▁prompted	-3790
▁revealed	-3791
▁rotation	-3792
▁specific	-3793
▁standard	-3794
▁strength	-3795
▁teachers	-3796
▁treasure	-3797
▁universe	-3798
▁basically	-3799
▁dashboard	-3800
▁direction	-3801
▁essential	-3802
▁qualities	-3803
▁directions	-3804
▁relaxation	-3805
▁scriptures	-3806
▁summarizes	-3807
▁appropriate	-3808
▁initialized	-3809
▁requirement	-3810
▁straightway	-3811
▁resurrection	-3812
▁manifestation	-3813
)"	-3814
1,	-3815
22	-3816
5,	-3817
Ch	-3818
DB	-3819
DK	-3820
EG	-3821
GB	-3822
ID	-3823
Ne	-3824
OT	-3825
Of	-3826
ev	-3827
gi	-3828
no	-3829
sl	-3830
wd	-3831
TRL	-3832
akt	-3833
ani	-3834
bre	-3835
ils	-3836
ksh	-3837
lor	-3838
net	-3839
odh	-3840
oot	-3841
ope	-3842
opt	-3843
pro	-3844
rel	-3845
rix	-3846
tar	-3847
tes	-3848
uge	-3849
yas	-3850
▁40	-3851
▁90	-3852
▁AW	-3853
▁Am	-3854
▁Id	-3855
▁Lo	-3856
▁OF	-3857
▁Ru	-3858
▁af	-3859
▁cy	-3860
▁eg	-3861
▁ut	-3862
▁vi	-3863
Demo	-3864
aged	-3865
agon	-3866
aily	-3867
avad	-3868
case	-3869
eech	-3870
esty	-3871
fold	-3872
gged	-3873
gypt	-3874
hern	-3875
isht	-3876
iter	-3877
itro	-3878
leth	-3879
oday	-3880
ooth	-3881
orns	-3882
otos	-3883
stal	-3884
tend	-3885
test	-3886
yama	-3887
▁"2.	-3888
▁AND	-3889
▁Ant	-3890
▁Dev	-3891
▁Exp	-3892
▁Hel	-3893
▁Log	-3894
▁Men	-3895
▁Mik	-3896
▁PHP	-3897
▁Rav	-3898
▁Ref	-3899
▁Rep	-3900
▁Sal	-3901
▁Sol	-3902
▁Ste	-3903
▁Tax	-3904
▁War	-3905
▁Wom	-3906
▁ant	-3907
▁aud	-3908
▁ble	-3909
▁der	-3910
▁die	-3911
▁enc	-3912
▁enh	-3913
▁neg	-3914
Again	-3915
agram	-3916
aints	-3917
alabh	-3918
andom	-3919
asing	-3920
ataka	-3921
ciety	-3922
ening	-3923
erday	-3924
ereth	-3925
hesis	-3926
ieves	-3927
olume	-3928
ority	-3929
owers	-3930
ruits	-3931
urved	-3932
▁Anim	-3933
▁Bank	-3934
▁CTRL	-3935
▁Cent	-3936
▁Char	-3937
▁Dash	-3938
▁Dron	-3939
▁Guru	-3940
▁Main	-3941
▁Pand	-3942
▁____	-3943
▁boys	-3944
▁burn	-3945
▁calm	-3946
▁danc	-3947
▁diet	-3948
▁flag	-3949
▁glad	-3950
▁gosh	-3951
▁grid	-3952
▁half	-3953
▁heat	-3954
▁heav	-3955
▁heed	-3956
▁heel	-3957
▁hide	-3958
▁jour	-3959
▁nerv	-3960
▁plan	-3961
▁raga	-3962
▁rain	-3963
▁rate	-3964
▁rich	-3965
▁seat	-3966
▁shed	-3967
▁skin	-3968
▁slow	-3969
▁unit	-3970
▁weak	-3971
▁wilt	-3972
▁yest	-3973
Spoken	-3974
ancial	-3975
ariaDB	-3976
assion	-3977
enance	-3978
ffered	-3979
isible	-3980
llipse	-3981
ointed	-3982
pected	-3983
select	-3984
▁Creat	-3985
▁Earth	-3986
▁Egypt	-3987
▁Entry	-3988
▁Hello	-3989
▁Prana	-3990
▁Super	-3991
▁Suppl	-3992
▁Surya	-3993
▁Today	-3994
▁Using	-3995
▁Vedas	-3996
▁Watch	-3997
▁birth	-3998
▁bonds	-3999
▁brief	-4000
▁conch	-4001
▁daily	-4002
▁deeds	-4003
▁drawn	-4004
▁elect	-4005
▁enjoy	-4006
▁erect	-4007
▁exact	-4008
▁gedit	-4009
▁imple	-4010
▁keeps	-4011
▁knows	-4012
▁label	-4013
▁lotus	-4014
▁miner	-4015
▁money	-4016
▁needs	-4017
▁noble	-4018
▁paste	-4019
▁scale	-4020
▁stead	-4021
▁still	-4022
▁study	-4023
▁tears	-4024
▁teeth	-4025
▁tells	-4026
▁tools	-4027
▁total	-4028
▁twice	-4029
▁waist	-4030
ategory	-4031
aughter	-4032
brarian	-4033
criptor	-4034
itrogen	-4035
resents	-4036
retched	-4037
uration	-4038
▁Delete	-4039
▁During	-4040
▁Exhale	-4041
▁MikTeX	-4042
▁People	-4043
▁Pilate	-4044
▁Rotate	-4045
▁Slowly	-4046
▁Source	-4047
▁Thanks	-4048
▁accept	-4049
▁across	-4050
▁aspect	-4051
▁attain	-4052
▁behind	-4053
▁belief	-4054
▁charge	-4055
▁chosen	-4056
▁colors	-4057
▁config	-4058
▁darker	-4059
▁detail	-4060
▁establ	-4061
▁experi	-4062
▁facing	-4063
▁figure	-4064
▁funded	-4065
▁higher	-4066
▁illust	-4067
▁interp	-4068
▁invoke	-4069
▁killed	-4070
▁matrix	-4071
▁myself	-4072
▁namely	-4073
▁nation	-4074
▁nearly	-4075
▁origin	-4076
▁perish	-4077
▁prints	-4078
▁prison	-4079
▁reduce	-4080
▁rotate	-4081
▁simply	-4082
▁smooth	-4083
▁thanks	-4084
▁thence	-4085
▁topics	-4086
--------	-4087
ithmetic	-4088
▁Default	-4089
▁English	-4090
▁MariaDB	-4091
▁Posture	-4092
▁Serials	-4093
▁Stretch	-4094
▁abdomen	-4095
▁actions	-4096
▁beloved	-4097
▁beseech	-4098
▁brushes	-4099
▁chapter	-4100
▁charity	-4101
▁conduct	-4102
▁contain	-4103
▁covered	-4104
▁declare	-4105
▁diagram	-4106
▁discuss	-4107
▁glorify	-4108
▁handles	-4109
▁healthy	-4110
▁joining	-4111
▁mothers	-4112
▁nervous	-4113
▁prepare	-4114
▁printer	-4115
▁rebuked	-4116
▁release	-4117
▁singing	-4118
▁usually	-4119
lications	-4120
velopment	-4121
▁Avogadro	-4122
▁Calculus	-4123
▁Database	-4124
▁Gaussian	-4125
▁Practice	-4126
▁Settings	-4127
▁activity	-4128
▁changing	-4129
▁explains	-4130
▁familiar	-4131
▁improves	-4132
▁patience	-4133
▁personal	-4134
▁produced	-4135
▁sacrific	-4136
▁uploaded	-4137
▁villages	-4138
imensional	-4139
▁Downloads	-4140
▁Education	-4141
▁connected	-4142
▁conscious	-4143
▁converted	-4144
▁destroyed	-4145
▁duplicate	-4146
▁languages	-4147
▁medicinal	-4148
▁molecules	-4149
▁mountains	-4150
▁pollution	-4151
▁remaining	-4152
▁resources	-4153
▁selecting	-4154
▁sepulchre	-4155
▁shoulders	-4156
▁spiritual	-4157
▁synagogue	-4158
▁witnesses	-4159
▁yesterday	-4160
ritarashtra	-4161
ultaneously	-4162
▁activities	-4163
▁compassion	-4164
▁confidence	-4165
▁considered	-4166
▁exhalation	-4167
▁generation	-4168
▁getDetails	-4169
▁multitudes	-4170
▁operations	-4171
▁vegetables	-4172
▁Dronacharya	-4173
▁expressions	-4174
▁programming	-4175
▁introduction	-4176
▁subscription	-4177
▁understanding	-4178
-1	-4179
7.	-4180
8.	-4181
Ar	-4182
ES	-4183
On	-4184
Sh	-4185
bi	-4186
ea	-4187
lt	-4188
my	-4189
rs	-4190
ux	-4191
र्	-4192
’,	-4193
▁व	-4194
AST	-4195
aff	-4196
eem	-4197
hah	-4198
ici	-4199
ima	-4200
isf	-4201
ned	-4202
oka	-4203
olf	-4204
omy	-4205
pel	-4206
ral	-4207
rik	-4208
tte	-4209
udh	-4210
▁13	-4211
▁6.	-4212
▁Dh	-4213
▁ax	-4214
▁ce	-4215
▁pH	-4216
▁ps	-4217
▁sn	-4218
Book	-4219
From	-4220
abas	-4221
abel	-4222
aken	-4223
anga	-4224
body	-4225
date	-4226
ests	-4227
gens	-4228
grad	-4229
gree	-4230
hest	-4231
icle	-4232
ioch	-4233
irty	-4234
ishi	-4235
itle	-4236
ivid	-4237
izes	-4238
keys	-4239
land	-4240
odle	-4241
oriz	-4242
orld	-4243
pace	-4244
quis	-4245
rate	-4246
reet	-4247
resh	-4248
room	-4249
semb	-4250
this	-4251
type	-4252
umes	-4253
umin	-4254
usha	-4255
utra	-4256
vest	-4257
▁200	-4258
▁201	-4259
▁3.3	-4260
▁40.	-4261
▁Act	-4262
▁Aut	-4263
▁Bar	-4264
▁Ben	-4265
▁Can	-4266
▁Car	-4267
▁Cop	-4268
▁Ele	-4269
▁Eli	-4270
▁Get	-4271
▁ICT	-4272
▁Inv	-4273
▁JDK	-4274
▁JSP	-4275
▁Kap	-4276
▁Mod	-4277
▁Mon	-4278
▁Pur	-4279
▁Seq	-4280
▁Vas	-4281
▁Web	-4282
▁arr	-4283
▁bag	-4284
▁beg	-4285
▁bod	-4286
▁dom	-4287
▁ens	-4288
▁gen	-4289
▁iii	-4290
▁led	-4291
▁lib	-4292
▁lim	-4293
▁mis	-4294
▁mur	-4295
▁num	-4296
▁pay	-4297
▁ran	-4298
▁swe	-4299
▁wid	-4300
/2017	-4301
Hello	-4302
acent	-4303
aches	-4304
acles	-4305
acock	-4306
allel	-4307
asons	-4308
atter	-4309
eness	-4310
ested	-4311
eturn	-4312
hetra	-4313
ident	-4314
iding	-4315
ifice	-4316
imony	-4317
inort	-4318
ishes	-4319
itute	-4320
iveth	-4321
olves	-4322
organ	-4323
oring	-4324
orses	-4325
osing	-4326
ounds	-4327
oured	-4328
quest	-4329
riter	-4330
slash	-4331
▁Boys	-4332
▁Germ	-4333
▁Look	-4334
▁Nort	-4335
▁Pass	-4336
▁Prop	-4337
▁Raja	-4338
▁Rest	-4339
▁Rolf	-4340
▁Saul	-4341
▁Show	-4342
▁Site	-4343
▁Thus	-4344
▁Vari	-4345
▁Yama	-4346
▁band	-4347
▁beat	-4348
▁boat	-4349
▁died	-4350
▁enem	-4351
▁gird	-4352
▁grad	-4353
▁hund	-4354
▁mess	-4355
▁nose	-4356
▁pain	-4357
▁pers	-4358
▁priv	-4359
▁rock	-4360
▁sabb	-4361
▁salt	-4362
▁sell	-4363
▁sick	-4364
▁soon	-4365
▁tail	-4366
▁tips	-4367
▁twel	-4368
▁undo	-4369
▁vend	-4370
▁vict	-4371
▁wall	-4372
▁wand	-4373
▁womb	-4374
▁wrou	-4375
NMEICT	-4376
alents	-4377
angled	-4378
atever	-4379
aviour	-4380
cedure	-4381
cience	-4382
ecture	-4383
edient	-4384
ilters	-4385
isters	-4386
nowing	-4387
ounsel	-4388
reathe	-4389
ricult	-4390
urname	-4391
yurved	-4392
▁11.10	-4393
▁12.04	-4394
▁Bhram	-4395
▁Damas	-4396
▁Drive	-4397
▁Gives	-4398
▁Grace	-4399
▁Grade	-4400
▁LaTeX	-4401
▁Micro	-4402
▁Prone	-4403
▁Refer	-4404
▁Relax	-4405
▁anger	-4406
▁audio	-4407
▁blind	-4408
▁chair	-4409
▁contr	-4410
▁crops	-4411
▁doeth	-4412
▁eight	-4413
▁enrol	-4414
▁force	-4415
▁frame	-4416
▁horns	-4417
▁hypoc	-4418
▁inher	-4419
▁kinds	-4420
▁loops	-4421
▁loved	-4422
▁magaz	-4423
▁mango	-4424
▁midst	-4425
▁moves	-4426
▁offer	-4427
▁query	-4428
▁shell	-4429
▁sides	-4430
▁stuff	-4431
▁tarry	-4432
▁taste	-4433
▁treat	-4434
▁waste	-4435
Neither	-4436
erscore	-4437
ishment	-4438
ividual	-4439
nthesis	-4440
raction	-4441
▁Bremen	-4442
▁Custom	-4443
▁Dialog	-4444
▁Import	-4445
▁Lastly	-4446
▁Recall	-4447
▁Sample	-4448
▁Typing	-4449
▁asanas	-4450
▁beasts	-4451
▁betray	-4452
▁branch	-4453
▁causes	-4454
▁cities	-4455
▁copied	-4456
▁deeply	-4457
▁divine	-4458
▁dollar	-4459
▁effort	-4460
▁engine	-4461
▁happen	-4462
▁indust	-4463
▁insert	-4464
▁labour	-4465
▁letter	-4466
▁mental	-4467
▁months	-4468
▁moodle	-4469
▁obtain	-4470
▁offend	-4471
▁persec	-4472
▁points	-4473
▁prayed	-4474
▁random	-4475
▁really	-4476
▁repeat	-4477
▁resist	-4478
▁saints	-4479
▁satisf	-4480
▁sewing	-4481
▁shewed	-4482
▁shloka	-4483
▁toward	-4484
▁transl	-4485
▁waters	-4486
▁Antioch	-4487
▁Blessed	-4488
▁Explain	-4489
▁Germany	-4490
▁Himself	-4491
▁Journal	-4492
▁Options	-4493
▁Superli	-4494
▁Supreme	-4495
▁Trataka	-4496
▁aligned	-4497
▁awkdemo	-4498
▁bondage	-4499
▁breathe	-4500
▁catalog	-4501
▁checked	-4502
▁clothed	-4503
▁columns	-4504
▁compare	-4505
▁concept	-4506
▁conform	-4507
▁creates	-4508
▁deliver	-4509
▁eclipse	-4510
▁endowed	-4511
▁exactly	-4512
▁garment	-4513
▁heavens	-4514
▁hundred	-4515
▁improve	-4516
▁knoweth	-4517
▁minimum	-4518
▁musical	-4519
▁profile	-4520
▁provide	-4521
▁purpose	-4522
▁quickly	-4523
▁reading	-4524
▁replace	-4525
▁sabbath	-4526
▁seconds	-4527
▁shlokas	-4528
▁society	-4529
▁spreads	-4530
▁supreme	-4531
▁talents	-4532
▁testdir	-4533
▁therein	-4534
▁tongues	-4535
▁unclean	-4536
▁updated	-4537
▁wrought	-4538
▁Accounts	-4539
▁Creating	-4540
▁Internet	-4541
▁National	-4542
▁Northern	-4543
▁Steinort	-4544
▁Students	-4545
▁abstract	-4546
▁actually	-4547
▁adjacent	-4548
▁agricult	-4549
▁argument	-4550
▁branches	-4551
▁cleansed	-4552
▁constant	-4553
▁disciple	-4554
▁employee	-4555
▁exhibits	-4556
▁feedback	-4557
▁governor	-4558
▁gradient	-4559
▁includes	-4560
▁messages	-4561
▁parallel	-4562
▁prepared	-4563
▁problems	-4564
▁progress	-4565
▁protects	-4566
▁receives	-4567
▁sentence	-4568
▁shortcut	-4569
▁speaking	-4570
▁supports	-4571
▁teaching	-4572
▁triangle	-4573
▁whenever	-4574
▁yourself	-4575
▁Vajrasana	-4576
▁abdominal	-4577
▁animation	-4578
▁carefully	-4579
▁completes	-4580
▁crucified	-4581
▁discussed	-4582
▁excellent	-4583
▁glorified	-4584
▁including	-4585
▁invisible	-4586
▁operation	-4587
▁procedure	-4588
▁sacrifice	-4589
▁sequences	-4590
▁sometimes	-4591
▁specified	-4592
▁testimony	-4593
▁transform	-4594
▁wherewith	-4595
▁Assignment	-4596
▁Properties	-4597
▁Saturation	-4598
▁downloaded	-4599
▁importance	-4600
▁individual	-4601
▁previously	-4602
▁properties	-4603
▁protection	-4604
▁represents	-4605
▁sacrifices	-4606
▁Mathematics	-4607
▁comfortable	-4608
▁contributed	-4609
▁demonstrate	-4610
▁established	-4611
▁grandfather	-4612
▁respectively	-4613
▁Superlibrarian	-4614
▁simultaneously	-4615
!!	-4616
2,	-4617
3:	-4618
Bh	-4619
ED	-4620
IS	-4621
LI	-4622
My	-4623
OM	-4624
UR	-4625
fl	-4626
ga	-4627
la	-4628
oo	-4629
uh	-4630
uz	-4631
vt	-4632
कः	-4633
त्	-4634
स्	-4635
▁)	-4636
ASH	-4637
Bre	-4638
Dis	-4639
III	-4640
Not	-4641
Pro	-4642
acc	-4643
aes	-4644
akh	-4645
amm	-4646
aps	-4647
arv	-4648
asm	-4649
asp	-4650
ays	-4651
cca	-4652
cpp	-4653
gar	-4654
ibh	-4655
ika	-4656
ike	-4657
ila	-4658
ims	-4659
ipe	-4660
isc	-4661
isk	-4662
ium	-4663
kal	-4664
ler	-4665
ogn	-4666
pdf	-4667
ppa	-4668
pta	-4669
udo	-4670
uly	-4671
uta	-4672
uzz	-4673
yay	-4674
yle	-4675
ymn	-4676
▁25	-4677
▁26	-4678
▁Ac	-4679
▁El	-4680
▁GL	-4681
▁Ni	-4682
▁Of	-4683
▁Ok	-4684
▁Op	-4685
▁PO	-4686
▁Sn	-4687
▁bh	-4688
▁es	-4689
▁ir	-4690
▁iv	-4691
▁ox	-4692
▁wc	-4693
▁वि	-4694
,000	-4695
."""	-4696
Data	-4697
Some	-4698
Thou	-4699
acle	-4700
acob	-4701
akti	-4702
alue	-4703
amin	-4704
anda	-4705
aram	-4706
ards	-4707
arus	-4708
cont	-4709
dess	-4710
enly	-4711
fast	-4712
gies	-4713
gins	-4714
harm	-4715
held	-4716
home	-4717
ighb	-4718
ilig	-4719
ilip	-4720
inen	-4721
isms	-4722
leep	-4723
lood	-4724
mana	-4725
mark	-4726
onia	-4727
orks	-4728
osha	-4729
pers	-4730
raft	-4731
rand	-4732
▁50%	-4733
▁AWK	-4734
▁Bio	-4735
▁Cap	-4736
▁DOT	-4737
▁Div	-4738
▁Don	-4739
▁Fun	-4740
▁IIT	-4741
▁Laz	-4742
▁Mel	-4743
▁Nad	-4744
▁Pri	-4745
▁RGB	-4746
▁Shr	-4747
▁Sri	-4748
▁Tab	-4749
▁Thy	-4750
▁Tim	-4751
▁Two	-4752
▁Yag	-4753
▁bra	-4754
▁cpp	-4755
▁det	-4756
▁din	-4757
▁due	-4758
▁dut	-4759
▁ego	-4760
▁jsp	-4761
▁lad	-4762
▁lic	-4763
▁lie	-4764
▁mir	-4765
▁mob	-4766
▁nar	-4767
▁oil	-4768
▁pol	-4769
▁pwd	-4770
▁raw	-4771
▁ric	-4772
▁ris	-4773
▁sch	-4774
▁tax	-4775
▁tip	-4776
▁tom	-4777
▁tor	-4778
▁ves	-4779
▁wax	-4780
Intro	-4781
adius	-4782
aking	-4783
annel	-4784
anted	-4785
askar	-4786
attle	-4787
becca	-4788
cular	-4789
eader	-4790
entle	-4791
erest	-4792
erity	-4793
estic	-4794
faces	-4795
ffice	-4796
iques	-4797
ishth	-4798
kshma	-4799
ometh	-4800
ontal	-4801
otosy	-4802
point	-4803
print	-4804
quent	-4805
riors	-4806
riyas	-4807
udent	-4808
umble	-4809
urtle	-4810
uruks	-4811
uting	-4812
venth	-4813
width	-4814
▁16.0	-4815
▁Arch	-4816
▁Barn	-4817
▁Bhuj	-4818
▁Blue	-4819
▁Caes	-4820
▁Dand	-4821
▁Dury	-4822
▁Each	-4823
▁Even	-4824
▁Food	-4825
▁Form	-4826
▁Gree	-4827
▁Meet	-4828
▁Menu	-4829
▁Pada	-4830
▁Padm	-4831
▁Prat	-4832
▁Read	-4833
▁Sing	-4834
▁Talk	-4835
▁Turn	-4836
▁View	-4837
▁Year	-4838
▁Yudh	-4839
▁ball	-4840
▁bare	-4841
▁bind	-4842
▁burd	-4843
▁chur	-4844
▁clim	-4845
▁cold	-4846
▁dece	-4847
▁disp	-4848
▁dumb	-4849
▁dust	-4850
▁fail	-4851
▁forb	-4852
▁forn	-4853
▁frag	-4854
▁hair	-4855
▁hell	-4856
▁hips	-4857
▁mail	-4858
▁mean	-4859
▁meet	-4860
▁nigh	-4861
▁pair	-4862
▁push	-4863
▁sear	-4864
▁seem	-4865
▁situ	-4866
▁spir	-4867
▁subc	-4868
▁sudo	-4869
▁team	-4870
▁uses	-4871
▁vain	-4872
▁vibr	-4873
▁vine	-4874
▁wait	-4875
▁wide	-4876
Verily	-4877
agraph	-4878
alette	-4879
arance	-4880
asures	-4881
conomy	-4882
cribed	-4883
encies	-4884
erness	-4885
ifying	-4886
itions	-4887
mitted	-4888
odhana	-4889
olutes	-4890
ternet	-4891
▁Align	-4892
▁Field	-4893
▁Ganga	-4894
▁Green	-4895
▁Hydro	-4896
▁Indra	-4897
▁Jacob	-4898
▁Learn	-4899
▁Priya	-4900
▁Shiva	-4901
▁Shlok	-4902
▁Stage	-4903
▁State	-4904
▁Vedic	-4905
▁abode	-4906
▁allow	-4907
▁appro	-4908
▁areas	-4909
▁broad	-4910
▁carry	-4911
▁clock	-4912
▁conso	-4913
▁crown	-4914
▁decor	-4915
▁dilig	-4916
▁everl	-4917
▁excre	-4918
▁feast	-4919
▁feeds	-4920
▁forty	-4921
▁frequ	-4922
▁girls	-4923
▁goods	-4924
▁habit	-4925
▁herbs	-4926
▁holes	-4927
▁honey	-4928
▁iniqu	-4929
▁liked	-4930
▁linen	-4931
▁lives	-4932
▁lusts	-4933
▁model	-4934
▁nodes	-4935
▁paper	-4936
▁piece	-4937
▁pixel	-4938
▁quant	-4939
▁quite	-4940
▁reign	-4941
▁resol	-4942
▁ruler	-4943
▁rules	-4944
▁scope	-4945
▁shame	-4946
▁since	-4947
▁skill	-4948
▁spoke	-4949
▁stick	-4950
▁subst	-4951
▁sword	-4952
▁thief	-4953
▁topic	-4954
▁typed	-4955
▁urine	-4956
▁width	-4957
▁yogic	-4958
However	-4959
amation	-4960
ilizers	-4961
iration	-4962
uddenly	-4963
utation	-4964
▁Action	-4965
▁Arrays	-4966
▁Brahma	-4967
▁Column	-4968
▁Config	-4969
▁Curves	-4970
▁Judaea	-4971
▁Object	-4972
▁Python	-4973
▁Ravana	-4974
▁Static	-4975
▁String	-4976
▁Volume	-4977
▁Within	-4978
▁adjust	-4979
▁advers	-4980
▁animal	-4981
▁assemb	-4982
▁beheld	-4983
▁blocks	-4984
▁bodies	-4985
▁broken	-4986
▁butter	-4987
▁closed	-4988
▁clouds	-4989
▁commit	-4990
▁constr	-4991
▁declar	-4992
▁define	-4993
▁enough	-4994
▁feared	-4995
▁filter	-4996
▁freely	-4997
▁gentle	-4998
▁hidden	-4999
▁hither	-5000
▁incarn	-5001
▁judged	-5002
▁logged	-5003
▁marvel	-5004
▁minded	-5005
▁morrow	-5006
▁neighb	-5007
▁occurs	-5008
▁partak	-5009
▁partic	-5010
▁pixels	-5011
▁praise	-5012
▁reject	-5013
▁rememb	-5014
▁reward	-5015
▁riches	-5016
▁salute	-5017
▁sister	-5018
▁starts	-5019
▁status	-5020
▁stress	-5021
▁tabern	-5022
▁taketh	-5023
▁talked	-5024
▁trying	-5025
▁twelve	-5026
▁vendor	-5027
▁vessel	-5028
▁whence	-5029
▁worlds	-5030
▁yellow	-5031
Tutorial	-5032
complete	-5033
ructions	-5034
umerable	-5035
▁Brahman	-5036
▁Filters	-5037
▁Lazarus	-5038
▁Opacity	-5039
▁Saviour	-5040
▁Sitting	-5041
▁Sukshma	-5042
▁ability	-5043
▁answers	-5044
▁bottles	-5045
▁charged	-5046
▁classes	-5047
▁clearly	-5048
▁corrupt	-5049
▁culture	-5050
▁cutting	-5051
▁deceive	-5052
▁desktop	-5053
▁devotee	-5054
▁disable	-5055
▁distrib	-5056
▁foolish	-5057
▁forgive	-5058
▁grieved	-5059
▁heading	-5060
▁heareth	-5061
▁journey	-5062
▁learned	-5063
▁liberty	-5064
▁located	-5065
▁looking	-5066
▁minutes	-5067
▁popular	-5068
▁possess	-5069
▁prevent	-5070
▁prophes	-5071
▁restaur	-5072
▁resting	-5073
▁serving	-5074
▁sinners	-5075
▁strings	-5076
▁suppose	-5077
▁thieves	-5078
▁torment	-5079
▁touched	-5080
▁webpage	-5081
▁wherein	-5082
▁whereof	-5083
ategories	-5084
orizontal	-5085
versation	-5086
▁........	-5087
▁Barnabas	-5088
▁Bhagavad	-5089
▁Bhramari	-5090
▁Damascus	-5091
▁Pandavas	-5092
▁Password	-5093
▁Purchase	-5094
▁Supplier	-5095
▁Terminal	-5096
▁attained	-5097
▁besought	-5098
▁bringeth	-5099
▁bringing	-5100
▁checkbox	-5101
▁churches	-5102
▁cleaning	-5103
▁consider	-5104
▁daughter	-5105
▁distance	-5106
▁enrolled	-5107
▁exercise	-5108
▁finished	-5109
▁generate	-5110
▁goodness	-5111
▁greatest	-5112
▁hencefor	-5113
▁hydrogen	-5114
▁indicate	-5115
▁internet	-5116
▁magazine	-5117
▁manually	-5118
▁override	-5119
▁pleasure	-5120
▁priority	-5121
▁removing	-5122
▁sanskrit	-5123
▁separate	-5124
▁standing	-5125
▁tomorrow	-5126
▁transfer	-5127
urukshetra	-5128
▁Bookmarks	-5129
▁Functions	-5130
▁bandwidth	-5131
▁beautiful	-5132
▁bookmarks	-5133
▁committed	-5134
▁depending	-5135
▁financial	-5136
▁generates	-5137
▁highlight	-5138
▁household	-5139
▁nutrients	-5140
▁observing	-5141
▁paragraph	-5142
▁processes	-5143
▁reference	-5144
▁satisfied	-5145
▁separated	-5146
▁stretched	-5147
▁technique	-5148
▁undefined	-5149
▁Duryodhana	-5150
▁Management	-5151
▁Navigation	-5152
▁arithmetic	-5153
▁definition	-5154
▁descending	-5155
▁descriptor	-5156
▁everywhere	-5157
▁guidelines	-5158
▁navigation	-5159
▁punishment	-5160
▁registered	-5161
▁strengthen	-5162
▁techniques	-5163
▁underscore	-5164
▁wilderness	-5165
otosynthesis	-5166
▁compilation	-5167
▁description	-5168
▁dissolution	-5169
▁everlasting	-5170
▁fornication	-5171
▁innumerable	-5172
▁traditional	-5173
▁continuously	-5174
▁demonstration	-5175
▁Administration	-5176
->	-5177
80	-5178
:,	-5179
AM	-5180
Al	-5181
At	-5182
DD	-5183
DF	-5184
IV	-5185
No	-5186
Ph	-5187
Pl	-5188
Pr	-5189
RI	-5190
UI	-5191
UT	-5192
af	-5193
dh	-5194
gs	-5195
kh	-5196
mi	-5197
rá	-5198
sv	-5199
td	-5200
uf	-5201
yl	-5202
का	-5203
वा	-5204
▁!	-5205
▁%	-5206
?""	-5207
Add	-5208
Boy	-5209
Des	-5210
ERS	-5211
ING	-5212
OSS	-5213
See	-5214
Woe	-5215
Yes	-5216
aym	-5217
bug	-5218
cip	-5219
dec	-5220
dot	-5221
elf	-5222
ene	-5223
ero	-5224
gal	-5225
hee	-5226
kes	-5227
maz	-5228
mod	-5229
nuh	-5230
oll	-5231
oma	-5232
oss	-5233
rap	-5234
rip	-5235
rud	-5236
set	-5237
uel	-5238
uja	-5239
ups	-5240
usp	-5241
vah	-5242
var	-5243
yak	-5244
ych	-5245
yre	-5246
yst	-5247
त्य	-5248
▁"(	-5249
▁(.	-5250
▁00	-5251
▁AN	-5252
▁BL	-5253
▁CD	-5254
▁Ev	-5255
▁Im	-5256
▁Jn	-5257
▁Ka	-5258
▁Ra	-5259
▁Rs	-5260
▁ST	-5261
▁TH	-5262
▁VI	-5263
▁bi	-5264
▁ep	-5265
▁rh	-5266
▁rm	-5267
""."	-5268
/201	-5269
EGIN	-5270
Even	-5271
Whom	-5272
ably	-5273
adhi	-5274
agas	-5275
akar	-5276
alas	-5277
alid	-5278
alms	-5279
alth	-5280
anch	-5281
anka	-5282
appe	-5283
apur	-5284
asic	-5285
atma	-5286
avya	-5287
bits	-5288
cean	-5289
edha	-5290
else	-5291
ency	-5292
eral	-5293
erms	-5294
from	-5295
haps	-5296
heth	-5297
hood	-5298
igor	-5299
illi	-5300
inth	-5301
ires	-5302
itha	-5303
itly	-5304
itor	-5305
iven	-5306
kash	-5307
lest	-5308
nger	-5309
omme	-5310
ored	-5311
otal	-5312
pees	-5313
quit	-5314
raid	-5315
rama	-5316
rish	-5317
soci	-5318
teth	-5319
uary	-5320
unch	-5321
uous	-5322
yana	-5323
yard	-5324
yers	-5325
yond	-5326
▁1.6	-5327
▁3.7	-5328
▁Alt	-5329
▁Any	-5330
▁Cat	-5331
▁Cle	-5332
▁Cor	-5333
▁Cow	-5334
▁Deg	-5335
▁Dep	-5336
▁Ext	-5337
▁GUI	-5338
▁Gen	-5339
▁Lie	-5340
▁Out	-5341
▁PDF	-5342
▁Pvt	-5343
▁Rah	-5344
▁Ren	-5345
▁SQL	-5346
▁Sut	-5347
▁Top	-5348
▁Veh	-5349
▁ago	-5350
▁bal	-5351
▁buy	-5352
▁cin	-5353
▁cos	-5354
▁cou	-5355
▁dna	-5356
▁egg	-5357
▁enl	-5358
▁gas	-5359
▁gcc	-5360
▁ide	-5361
▁ign	-5362
▁kil	-5363
▁lam	-5364
▁low	-5365
▁maj	-5366
▁mom	-5367
▁mud	-5368
▁ner	-5369
▁opp	-5370
▁pen	-5371
▁pul	-5372
▁sir	-5373
▁std	-5374
▁sti	-5375
▁tid	-5376
▁unc	-5377
▁yea	-5378
First	-5379
anger	-5380
antly	-5381
aries	-5382
asket	-5383
balls	-5384
chapt	-5385
chron	-5386
cipal	-5387
clock	-5388
enced	-5389
erisk	-5390
hemat	-5391
iline	-5392
iling	-5393
iller	-5394
iment	-5395
inion	-5396
inter	-5397
iring	-5398
izing	-5399
mount	-5400
ogram	-5401
ollow	-5402
omach	-5403
onour	-5404
plies	-5405
rates	-5406
riage	-5407
stood	-5408
ufact	-5409
umbai	-5410
umpet	-5411
under	-5412
usion	-5413
▁5.6.	-5414
▁Amaz	-5415
▁Auto	-5416
▁Bend	-5417
▁Cond	-5418
▁Cook	-5419
▁Date	-5420
▁Demo	-5421
▁Ekal	-5422
▁Host	-5423
▁IITB	-5424
▁Kaur	-5425
▁Mark	-5426
▁Nand	-5427
▁Over	-5428
▁Pers	-5429
▁Quiz	-5430
▁Raju	-5431
▁Raym	-5432
▁Sage	-5433
▁Soft	-5434
▁Veda	-5435
▁Vibh	-5436
▁Well	-5437
▁Xfig	-5438
▁asks	-5439
▁beam	-5440
▁chin	-5441
▁clut	-5442
▁cool	-5443
▁disc	-5444
▁eats	-5445
▁edge	-5446
▁excl	-5447
▁ferv	-5448
▁flex	-5449
▁gate	-5450
▁gear	-5451
▁goal	-5452
▁join	-5453
▁lapt	-5454
▁late	-5455
▁lion	-5456
▁lose	-5457
▁myst	-5458
▁news	-5459
▁pent	-5460
▁pipe	-5461
▁plug	-5462
▁rejo	-5463
▁rele	-5464
▁rose	-5465
▁rule	-5466
▁sage	-5467
▁sams	-5468
▁shad	-5469
▁sile	-5470
▁slew	-5471
▁tast	-5472
▁virt	-5473
▁weap	-5474
▁week	-5475
▁weep	-5476
▁zero	-5477
Exhale	-5478
Reader	-5479
anjali	-5480
aratha	-5481
aximum	-5482
brance	-5483
cially	-5484
ellect	-5485
google	-5486
ifiers	-5487
ivalya	-5488
ograph	-5489
orance	-5490
▁Asana	-5491
▁BEGIN	-5492
▁BLAST	-5493
▁Bhagw	-5494
▁Bhima	-5495
▁Email	-5496
▁Grand	-5497
▁Great	-5498
▁Input	-5499
▁Jnana	-5500
▁Label	-5501
▁Lanka	-5502
▁Maced	-5503
▁March	-5504
▁Navig	-5505
▁Satan	-5506
▁Silas	-5507
▁Sinha	-5508
▁Space	-5509
▁Staff	-5510
▁Sukta	-5511
▁Trans	-5512
▁Users	-5513
▁Women	-5514
▁World	-5515
▁Yogis	-5516
▁_____	-5517
▁agree	-5518
▁ahead	-5519
▁atoms	-5520
▁avoid	-5521
▁calls	-5522
▁cases	-5523
▁colon	-5524
▁coven	-5525
▁dirty	-5526
▁disob	-5527
▁edges	-5528
▁elder	-5529
▁embed	-5530
▁fixed	-5531
▁foods	-5532
▁forbe	-5533
▁fungi	-5534
▁geeta	-5535
▁inner	-5536
▁insom	-5537
▁links	-5538
▁merch	-5539
▁metal	-5540
▁meter	-5541
▁micro	-5542
▁mudra	-5543
▁numer	-5544
▁offic	-5545
▁owner	-5546
▁paths	-5547
▁polit	-5548
▁regul	-5549
▁repro	-5550
▁risen	-5551
▁roots	-5552
▁salts	-5553
▁secre	-5554
▁sheet	-5555
▁sixth	-5556
▁sloka	-5557
▁smile	-5558
▁smoke	-5559
▁stage	-5560
▁stays	-5561
▁sutra	-5562
▁tenth	-5563
▁throw	-5564
▁valid	-5565
▁walls	-5566
▁wheel	-5567
▁yield	-5568
Because	-5569
Firefox	-5570
achment	-5571
balance	-5572
centage	-5573
licitly	-5574
orrowed	-5575
quitoes	-5576
related	-5577
ributes	-5578
theless	-5579
umerate	-5580
yurveda	-5581
▁Centre	-5582
▁Inhale	-5583
▁Miller	-5584
▁Modify	-5585
▁Mumbai	-5586
▁Normal	-5587
▁Philip	-5588
▁Proper	-5589
▁Suktam	-5590
▁Supine	-5591
▁Update	-5592
▁active	-5593
▁armies	-5594
▁arrays	-5595
▁asleep	-5596
▁associ	-5597
▁attend	-5598
▁beside	-5599
▁beyond	-5600
▁brilli	-5601
▁centur	-5602
▁copies	-5603
▁curved	-5604
▁curves	-5605
▁dances	-5606
▁defile	-5607
▁degree	-5608
▁depend	-5609
▁desert	-5610
▁dragon	-5611
▁drinks	-5612
▁easier	-5613
▁eateth	-5614
▁encour	-5615
▁enroll	-5616
▁enters	-5617
▁exists	-5618
▁finish	-5619
▁fishes	-5620
▁fourth	-5621
▁gather	-5622
▁geomet	-5623
▁golden	-5624
▁google	-5625
▁growth	-5626
▁habits	-5627
▁handle	-5628
▁healed	-5629
▁horses	-5630
▁humble	-5631
▁infirm	-5632
▁inhale	-5633
▁larger	-5634
▁leaven	-5635
▁levels	-5636
▁lifted	-5637
▁listed	-5638
▁manage	-5639
▁market	-5640
▁mostly	-5641
▁multip	-5642
▁needed	-5643
▁nerves	-5644
▁pieces	-5645
▁preced	-5646
▁prince	-5647
▁profit	-5648
▁reader	-5649
▁recogn	-5650
▁refuge	-5651
▁resize	-5652
▁sample	-5653
▁school	-5654
▁social	-5655
▁someth	-5656
▁stones	-5657
▁stroke	-5658
▁supply	-5659
▁taking	-5660
▁termin	-5661
▁throws	-5662
▁thumbs	-5663
▁transp	-5664
▁tribal	-5665
▁tribes	-5666
▁wealth	-5667
▁wonder	-5668
alabhati	-5669
andatory	-5670
angasana	-5671
eousness	-5672
nowledge	-5673
ographic	-5674
ommended	-5675
standing	-5676
▁Address	-5677
▁Balance	-5678
▁Bharata	-5679
▁Capital	-5680
▁Catalog	-5681
▁Connect	-5682
▁Control	-5683
▁Element	-5684
▁History	-5685
▁Lecture	-5686
▁Palette	-5687
▁Pattern	-5688
▁Preview	-5689
▁Process	-5690
▁Raymond	-5691
▁Samyama	-5692
▁Service	-5693
▁Shlokas	-5694
▁Vehicle	-5695
▁assumes	-5696
▁baptism	-5697
▁burdens	-5698
▁carried	-5699
▁channel	-5700
▁complex	-5701
▁console	-5702
▁corners	-5703
▁cowshed	-5704
▁deleted	-5705
▁delight	-5706
▁denotes	-5707
▁derived	-5708
▁disappe	-5709
▁economy	-5710
▁ellipse	-5711
▁entries	-5712
▁evening	-5713
▁folders	-5714
▁forgets	-5715
▁general	-5716
▁goddess	-5717
▁graphic	-5718
▁indices	-5719
▁inherit	-5720
▁introdu	-5721
▁invoice	-5722
▁keeping	-5723
▁knowest	-5724
▁lawyers	-5725
▁manager	-5726
▁modesty	-5727
▁offered	-5728
▁outline	-5729
▁painted	-5730
▁peacock	-5731
▁private	-5732
▁quality	-5733
▁raising	-5734
▁science	-5735
▁seasons	-5736
▁service	-5737
▁servlet	-5738
▁sisters	-5739
▁squares	-5740
▁stipend	-5741
▁stomach	-5742
▁surface	-5743
▁trouble	-5744
▁trumpet	-5745
▁unright	-5746
▁victory	-5747
▁wonders	-5748
▁younger	-5749
esticides	-5750
hematical	-5751
▁Children	-5752
▁Generate	-5753
▁Kauravas	-5754
▁Launcher	-5755
▁Likewise	-5756
▁Nitrogen	-5757
▁Pharisee	-5758
▁Remember	-5759
▁Software	-5760
▁advanced	-5761
▁asterisk	-5762
▁bookmark	-5763
▁building	-5764
▁capacity	-5765
▁chapters	-5766
▁chariote	-5767
▁chariots	-5768
▁checking	-5769
▁currency	-5770
▁directed	-5771
▁dragging	-5772
▁eyeballs	-5773
▁forehead	-5774
▁forwards	-5775
▁grepdemo	-5776
▁interest	-5777
▁launcher	-5778
▁maintain	-5779
▁manufact	-5780
▁marriage	-5781
▁minerals	-5782
▁miracles	-5783
▁negative	-5784
▁offering	-5785
▁optimize	-5786
▁ordained	-5787
▁overcome	-5788
▁parables	-5789
▁pentagon	-5790
▁positive	-5791
▁programs	-5792
▁properly	-5793
▁property	-5794
▁provides	-5795
▁purposes	-5796
▁quantity	-5797
▁redirect	-5798
▁resource	-5799
▁subchapt	-5800
▁subclass	-5801
▁suffered	-5802
▁thinking	-5803
▁thoughts	-5804
▁unbelief	-5805
▁whatever	-5806
ifications	-5807
▁Configure	-5808
▁Hydrogens	-5809
▁Macedonia	-5810
▁Practices	-5811
▁Tutorials	-5812
▁Yudhishth	-5813
▁abundance	-5814
▁alignment	-5815
▁ascending	-5816
▁authority	-5817
▁automatic	-5818
▁clockwise	-5819
▁collected	-5820
▁comforted	-5821
▁component	-5822
▁compounds	-5823
▁documents	-5824
▁excretion	-5825
▁forgotten	-5826
▁godliness	-5827
▁gradually	-5828
▁graphical	-5829
▁implement	-5830
▁indicated	-5831
▁intellect	-5832
▁partakers	-5833
▁receiveth	-5834
▁something	-5835
▁suffering	-5836
▁attachment	-5837
▁attributes	-5838
▁collection	-5839
▁discussion	-5840
▁formatting	-5841
▁henceforth	-5842
▁indicators	-5843
▁industries	-5844
▁inhalation	-5845
▁management	-5846
▁manifested	-5847
▁meditation	-5848
▁production	-5849
▁restaurant	-5850
▁sanctified	-5851
▁synagogues	-5852
▁tabernacle	-5853
▁vibrations	-5854
▁Application	-5855
▁Development	-5856
▁Kapalabhati	-5857
▁Preferences	-5858
▁agriculture	-5859
▁declaration	-5860
▁differences	-5861
▁overloading	-5862
▁recommended	-5863
▁remembrance	-5864
▁Installation	-5865
▁Reproduction	-5866
▁commandments	-5867
▁contribution	-5868
▁conversation	-5869
▁distribution	-5870
▁instructions	-5871
▁mathematical	-5872
▁requirements	-5873
▁consciousness	-5874
▁characteristics	-5875
▁unrighteousness	-5876
",	-5877
-2	-5878
.,	-5879
2)	-5880
7,	-5881
:.	-5882
BN	-5883
CE	-5884
Cl	-5885
ET	-5886
Fe	-5887
Go	-5888
Id	-5889
MI	-5890
MM	-5891
RG	-5892
SV	-5893
SW	-5894
▁	-5895
e	-5896
t	-5897
a	-5898
o	-5899
n	-5900
i	-5901
s	-5902
h	-5903
r	-5904
l	-5905
d	-5906
u	-5907
c	-5908
m	-5909
w	-5910
f	-5911
.	-5912
p	-5913
g	-5914
y	-5915
b	-5916
,	-5917
v	-5918
"	-5919
k	-5920
T	-5921
I	-5922
S	-5923
A	-5924
x	-5925
C	-5926
:	-5927
N	-5928
W	-5929
B	-5930
L	-5931
P	-5932
M	-5933
F	-5934
-	-5935
G	-5936
H	-5937
E	-5938
D	-5939
'	-5940
j	-5941
O	-5942
R	-5943
1	-5944
q	-5945
;	-5946
J	-5947
Y	-5948
0	-5949
?	-5950
2	-5951
K	-5952
z	-5953
)	-5954
(	-5955
U	-5956
V	-5957
’	-5958
3	-5959
/	-5960
4	-5961
5	-5962
+	-5963
“	-5964
”	-5965
_	-5966
6	-5967
7	-5968
‘	-5969
्	-5970
X	-5971
•	-5972
9	-5973
!	-5974
8	-5975
ा	-5976
Q	-5977
त	-5978
क	-5979
ि	-5980
>	-5981
र	-5982
á	-5983
ं	-5984
प	-5985
य	-5986
=	-5987
–	-5988
ः	-5989
व	-5990
स	-5991
%	-5992
Z	-5993
&	-5994
\	-5995
